{"version": "1.0", "truncation": null, "padding": null, "added_tokens": [{"id": 256, "content": "<|endoftext|>", "single_word": false, "lstrip": false, "rstrip": false, "normalized": false, "special": true}, {"id": 257, "content": "<|fim_prefix|>", "single_word": false, "lstrip": false, "rstrip": false, "normalized": false, "special": true}, {"id": 258, "content": "<|fim_middle|>", "single_word": false, "lstrip": false, "rstrip": false, "normalized": false, "special": true}, {"id": 259, "content": "<|fim_suffix|>", "single_word": false, "lstrip": false, "rstrip": false, "normalized": false, "special": true}, {"id": 260, "content": "<|fim_pad|>", "single_word": false, "lstrip": false, "rstrip": false, "normalized": false, "special": true}, {"id": 261, "content": "<|repo_name|>", "single_word": false, "lstrip": false, "rstrip": false, "normalized": false, "special": true}, {"id": 262, "content": "<|file_sep|>", "single_word": false, "lstrip": false, "rstrip": false, "normalized": false, "special": true}], "normalizer": null, "pre_tokenizer": {"type": "Sequence", "pretokenizers": [{"type": "Digits", "individual_digits": true}, {"type": "ByteLevel", "add_prefix_space": false, "trim_offsets": true, "use_regex": true}]}, "post_processor": null, "decoder": {"type": "ByteLevel", "add_prefix_space": true, "trim_offsets": true, "use_regex": true}, "model": {"type": "BPE", "dropout": null, "unk_token": null, "continuing_subword_prefix": null, "end_of_word_suffix": null, "fuse_unk": false, "byte_fallback": false, "ignore_merges": false, "vocab": {"\u0100": 0, "\u0101": 1, "\u0102": 2, "\u0103": 3, "\u0104": 4, "\u0105": 5, "\u0106": 6, "\u0107": 7, "\u0108": 8, "\u0109": 9, "\u010a": 10, "\u010b": 11, "\u010c": 12, "\u010d": 13, "\u010e": 14, "\u010f": 15, "\u0110": 16, "\u0111": 17, "\u0112": 18, "\u0113": 19, "\u0114": 20, "\u0115": 21, "\u0116": 22, "\u0117": 23, "\u0118": 24, "\u0119": 25, "\u011a": 26, "\u011b": 27, "\u011c": 28, "\u011d": 29, "\u011e": 30, "\u011f": 31, "\u0120": 32, "!": 33, "\"": 34, "#": 35, "$": 36, "%": 37, "&": 38, "'": 39, "(": 40, ")": 41, "*": 42, "+": 43, ",": 44, "-": 45, ".": 46, "/": 47, "0": 48, "1": 49, "2": 50, "3": 51, "4": 52, "5": 53, "6": 54, "7": 55, "8": 56, "9": 57, ":": 58, ";": 59, "<": 60, "=": 61, ">": 62, "?": 63, "@": 64, "A": 65, "B": 66, "C": 67, "D": 68, "E": 69, "F": 70, "G": 71, "H": 72, "I": 73, "J": 74, "K": 75, "L": 76, "M": 77, "N": 78, "O": 79, "P": 80, "Q": 81, "R": 82, "S": 83, "T": 84, "U": 85, "V": 86, "W": 87, "X": 88, "Y": 89, "Z": 90, "[": 91, "\\": 92, "]": 93, "^": 94, "_": 95, "`": 96, "a": 97, "b": 98, "c": 99, "d": 100, "e": 101, "f": 102, "g": 103, "h": 104, "i": 105, "j": 106, "k": 107, "l": 108, "m": 109, "n": 110, "o": 111, "p": 112, "q": 113, "r": 114, "s": 115, "t": 116, "u": 117, "v": 118, "w": 119, "x": 120, "y": 121, "z": 122, "{": 123, "|": 124, "}": 125, "~": 126, "\u0121": 127, "\u0122": 128, "\u0123": 129, "\u0124": 130, "\u0125": 131, "\u0126": 132, "\u0127": 133, "\u0128": 134, "\u0129": 135, "\u012a": 136, "\u012b": 137, "\u012c": 138, "\u012d": 139, "\u012e": 140, "\u012f": 141, "\u0130": 142, "\u0131": 143, "\u0132": 144, "\u0133": 145, "\u0134": 146, "\u0135": 147, "\u0136": 148, "\u0137": 149, "\u0138": 150, "\u0139": 151, "\u013a": 152, "\u013b": 153, "\u013c": 154, "\u013d": 155, "\u013e": 156, "\u013f": 157, "\u0140": 158, "\u0141": 159, "\u0142": 160, "\u00a1": 161, "\u00a2": 162, "\u00a3": 163, "\u00a4": 164, "\u00a5": 165, "\u00a6": 166, "\u00a7": 167, "\u00a8": 168, "\u00a9": 169, "\u00aa": 170, "\u00ab": 171, "\u00ac": 172, "\u0143": 173, "\u00ae": 174, "\u00af": 175, "\u00b0": 176, "\u00b1": 177, "\u00b2": 178, "\u00b3": 179, "\u00b4": 180, "\u00b5": 181, "\u00b6": 182, "\u00b7": 183, "\u00b8": 184, "\u00b9": 185, "\u00ba": 186, "\u00bb": 187, "\u00bc": 188, "\u00bd": 189, "\u00be": 190, "\u00bf": 191, "\u00c0": 192, "\u00c1": 193, "\u00c2": 194, "\u00c3": 195, "\u00c4": 196, "\u00c5": 197, "\u00c6": 198, "\u00c7": 199, "\u00c8": 200, "\u00c9": 201, "\u00ca": 202, "\u00cb": 203, "\u00cc": 204, "\u00cd": 205, "\u00ce": 206, "\u00cf": 207, "\u00d0": 208, "\u00d1": 209, "\u00d2": 210, "\u00d3": 211, "\u00d4": 212, "\u00d5": 213, "\u00d6": 214, "\u00d7": 215, "\u00d8": 216, "\u00d9": 217, "\u00da": 218, "\u00db": 219, "\u00dc": 220, "\u00dd": 221, "\u00de": 222, "\u00df": 223, "\u00e0": 224, "\u00e1": 225, "\u00e2": 226, "\u00e3": 227, "\u00e4": 228, "\u00e5": 229, "\u00e6": 230, "\u00e7": 231, "\u00e8": 232, "\u00e9": 233, "\u00ea": 234, "\u00eb": 235, "\u00ec": 236, "\u00ed": 237, "\u00ee": 238, "\u00ef": 239, "\u00f0": 240, "\u00f1": 241, "\u00f2": 242, "\u00f3": 243, "\u00f4": 244, "\u00f5": 245, "\u00f6": 246, "\u00f7": 247, "\u00f8": 248, "\u00f9": 249, "\u00fa": 250, "\u00fb": 251, "\u00fc": 252, "\u00fd": 253, "\u00fe": 254, "\u00ff": 255, "<|endoftext|>": 256, "<|fim_prefix|>": 257, "<|fim_middle|>": 258, "<|fim_suffix|>": 259, "<|fim_pad|>": 260, "<|repo_name|>": 261, "<|file_sep|>": 262, "\u0120\u0120": 263, "\u0120\u0120\u0120\u0120": 264, "\u0120\u0120\u0120": 265, "\u0120\u0120\u0120\u0120\u0120\u0120\u0120\u0120": 266, "er": 267, "in": 268, "on": 269, "re": 270, "at": 271, "st": 272, "or": 273, "en": 274, "\u010a\u0120\u0120\u0120": 275, "\u010a\u0120\u0120\u0120\u0120\u0120\u0120\u0120\u0120": 276, "\u010a\u0120\u0120\u0120\u0120": 277, "le": 278, "\u0120=": 279, "se": 280, "\u0120t": 281, "\u0120c": 282, "al": 283, "ar": 284, "--": 285, "an": 286, "it": 287, "\u010a\u0120\u0120\u0120\u0120\u0120\u0120\u0120": 288, "de": 289, "ro": 290, "ion": 291, "\u0120\"": 292, "me": 293, "\u0120{": 294, "ct": 295, "\u0120f": 296, "\u010a\u0120": 297, "\u0120p": 298, "ut": 299, "ing": 300, "ss": 301, "ge": 302, "ent": 303, ");": 304, "ic": 305, "\u0120<": 306, "\u0120}": 307, "la": 308, "he": 309, "id": 310, "\u0120(": 311, "mp": 312, "lo": 313, "ate": 314, "\u0120a": 315, "ur": 316, "un": 317, "ex": 318, "\u0120s": 319, "//": 320, "\u010a\u0120\u0120\u0120\u0120\u0120\u0120\u0120\u0120\u0120\u0120\u0120": 321, "\u0120n": 322, "di": 323, "\u0120i": 324, "ame": 325, "\u0120re": 326, "\u0109\u0109": 327, "ol": 328, "ce": 329, "\u0120b": 330, "ad": 331, "=\"": 332, "\u0120'": 333, "----": 334, "ue": 335, "ma": 336, "il": 337, "ig": 338, "\u0120\u0120\u0120\u0120\u0120\u0120\u0120": 339, "\u010a\u0120\u0120\u0120\u0120\u0120\u0120\u0120\u0120\u0120\u0120\u0120\u0120\u0120\u0120\u0120\u0120": 340, "==": 341, "int": 342, "\u010a\u0120\u0120\u0120\u0120\u0120": 343, "el": 344, "es": 345, "us": 346, "co": 347, "ra": 348, "ch": 349, "\",": 350, "ul": 351, "ont": 352, "ck": 353, "ort": 354, "00": 355, "\u01201": 356, "()": 357, "ot": 358, "ed": 359, "**": 360, "\u0120S": 361, "\u0120m": 362, "\u0120v": 363, "pe": 364, "ext": 365, "\u0120-": 366, "is": 367, "\u0120d": 368, "\u0120w": 369, "ation": 370, "\u0120st": 371, "ri": 372, "et": 373, "um": 374, "\u01200": 375, "and": 376, "##": 377, "\u0120o": 378, "li": 379, "\u0120in": 380, "\u010a\u0120\u0120\u0120\u0120\u0120\u0120\u0120\u0120\u0120\u0120\u0120\u0120\u0120\u0120\u0120": 381, "\u0120the": 382, "pt": 383, "\u0120C": 384, "ata": 385, "ht": 386, "ring": 387, "lass": 388, "th": 389, "age": 390, "end": 391, "ction": 392, "ub": 393, "\u0120[": 394, "ew": 395, "\u0120de": 396, "In": 397, "\u0120*": 398, "sp": 399, "set": 400, "em": 401, "get": 402, "as": 403, "\u010a\u0109": 404, "(\"": 405, "urn": 406, "',": 407, "ab": 408, "ile": 409, "\u0120$": 410, "\u0120T": 411, "pp": 412, "\u010a\u0109\u0109": 413, "\u0120A": 414, "ve": 415, "\u0120con": 416, "\u0120to": 417, "ode": 418, "mport": 419, "if": 420, "\u0120if": 421, "turn": 422, "to": 423, "ers": 424, "\u0120:": 425, "</": 426, "iz": 427, "\u0120//": 428, "--------": 429, "\">": 430, "\u0120class": 431, "Re": 432, "St": 433, "\u0120P": 434, "up": 435, "ype": 436, "os": 437, "\u010a\u010a\u0120\u0120\u0120": 438, "om": 439, "od": 440, "ord": 441, "\")": 442, "====": 443, "\u0120#": 444, "\u01202": 445, "\u0120h": 446, "rom": 447, "ment": 448, "ow": 449, "orm": 450, "div": 451, "ect": 452, "ver": 453, "import": 454, "con": 455, "\u0120.": 456, "ist": 457, "ult": 458, "\u0120e": 459, "\u0120D": 460, "ack": 461, "te": 462, "),": 463, "lic": 464, "\u0120return": 465, "qu": 466, "\u0120se": 467, "\u0120th": 468, "am": 469, "\u0120N": 470, "name": 471, "\u0120g": 472, "ase": 473, "\":": 474, "art": 475, "ror": 476, "::": 477, "\u0120\u0120\u0120\u0120\u0120\u0120\u0120\u0120\u0120\u0120\u0120\u0120\u0120\u0120\u0120\u0120": 478, "\u0120</": 479, "ser": 480, "ter": 481, "ine": 482, "alue": 483, "\u010a\u0120\u0120\u0120\u0120\u0120\u0120\u0120\u0120\u0120": 484, "\u0120for": 485, "))": 486, "\u010a\u010a": 487, "able": 488, "ight": 489, "put": 490, "out": 491, "\u010d\u010a": 492, "all": 493, "ke": 494, "\u0120+": 495, "\u010d\u010a\u0120\u0120\u0120": 496, "\u010a\u0120\u0120\u0120\u0120\u0120\u0120\u0120\u0120\u0120\u0120\u0120\u0120\u0120\u0120\u0120\u0120\u0120\u0120\u0120": 497, "sc": 498, "\u0120M": 499, "olor": 500, "\u0120tr": 501, "ption": 502, "Name": 503, "\u0120I": 504, "ff": 505, "\u0120/": 506, "\u0120=>": 507, "ize": 508, "\u0120E": 509, "pro": 510, "im": 511, "\u0120F": 512, "lf": 513, "\u0120and": 514, "res": 515, "ath": 516, "\u0120|": 517, "ime": 518, "****": 519, "ith": 520, "('": 521, "\u0120const": 522, "\u0120r": 523, "user": 524, "\u0120l": 525, "ity": 526, "ir": 527, "\u0120\u0120\u0120\u0120\u0120": 528, "lay": 529, "fa": 530, "\u0120L": 531, "log": 532, "..": 533, "px": 534, "\u0120is": 535, "ap": 536, "unt": 537, "und": 538, "####": 539, "ER": 540, "use": 541, "ice": 542, "\u0120from": 543, "let": 544, "que": 545, "ject": 546, "\u0120@": 547, "\u0120int": 548, "\u0120R": 549, "ert": 550, "();": 551, "\u0120pro": 552, "\u0120B": 553, "Id": 554, "\u0120of": 555, "op": 556, "our": 557, "ind": 558, "tr": 559, "data": 560, "oc": 561, "tp": 562, "lu": 563, "rint": 564, "\u0120di": 565, "ren": 566, "ite": 567, "av": 568, "ac": 569, "\u0120&": 570, "\u0120y": 571, "IN": 572, "ost": 573, "ign": 574, "one": 575, "act": 576, "ory": 577, "ild": 578, "add": 579, "ON": 580, "est": 581, "\u0120ex": 582, "\u0120ma": 583, "\u0120U": 584, "form": 585, "error": 586, "uct": 587, "ans": 588, "\u010a\u010a\u0120": 589, "cont": 590, "dd": 591, "reate": 592, "fig": 593, "ard": 594, "ial": 595, "ag": 596, "sh": 597, "com": 598, "ok": 599, "->": 600, "\u01203": 601, "\u0120_": 602, "ure": 603, "date": 604, "\u0120j": 605, "bo": 606, "----------------": 607, "iew": 608, "\u0120name": 609, "ull": 610, "mage": 611, "\u0120as": 612, "\u0120%": 613, "ll": 614, "ay": 615, "],": 616, "\u010d\u010a\u0120\u0120\u0120\u0120\u0120\u0120\u0120": 617, "ber": 618, "ore": 619, "omp": 620, "========": 621, "lab": 622, "\u0120O": 623, "http": 624, "text": 625, "\u010a\u0120\u0120\u0120\u0120\u0120\u0120\u0120\u0120\u0120\u0120\u0120\u0120\u0120\u0120\u0120\u0120\u0120\u0120\u0120\u0120\u0120\u0120\u0120\u0120": 626, "ition": 627, "\u0120==": 628, "loc": 629, ").": 630, "\u0120me": 631, "RE": 632, "Pro": 633, "gin": 634, "\u0120St": 635, "ssage": 636, "odel": 637, "\u0120G": 638, "\u010a\u010a\u0120\u0120\u0120\u0120\u0120\u0120\u0120": 639, "\u0120new": 640, "quest": 641, "Cont": 642, "ip": 643, "\u0120`": 644, "ton": 645, "\u0120string": 646, "ire": 647, "\u0120el": 648, "):": 649, "\";": 650, "ublic": 651, "ST": 652, "unction": 653, "item": 654, "\u0120on": 655, "utton": 656, "bu": 657, "port": 658, "cess": 659, "\u0120set": 660, "\u0120\u00d0": 661, "file": 662, "app": 663, "LE": 664, "ive": 665, "ME": 666, "\u010a\u0120\u0120\u0120\u0120\u0120\u0120\u0120\u0120\u0120\u0120\u0120\u0120\u0120\u0120\u0120\u0120\u0120\u0120\u0120\u0120\u0120\u0120\u0120": 667, "key": 668, "dex": 669, "order": 670, "AT": 671, "list": 672, "ain": 673, "\u0120},": 674, "\u0120self": 675, "vice": 676, "ust": 677, "alse": 678, "idth": 679, "ant": 680, "20": 681, "__": 682, "str": 683, "\u0120data": 684, "ance": 685, "gro": 686, "={": 687, "\u0120this": 688, "\u0120\\": 689, "itle": 690, "ly": 691, "ec": 692, "mple": 693, "ass": 694, "og": 695, "\u0120V": 696, "\u0120--": 697, "rent": 698, "onse": 699, "lect": 700, "\u0120end": 701, "scri": 702, "\u010a\u0120\u0120\u0120\u0120\u0120\u0120\u0120\u0120\u0120\u0120\u0120\u0120\u0120": 703, "\u0120W": 704, "mo": 705, "ress": 706, "ph": 707, "\u0120id": 708, "\u0120true": 709, "\u0120->": 710, "')": 711, "\u0120ch": 712, "vent": 713, "\u0120cont": 714, "yle": 715, "\u0120>": 716, "10": 717, "ies": 718, "js": 719, "row": 720, "ft": 721, "\u0120text": 722, "://": 723, "def": 724, "ref": 725, "\u0120x": 726, "Data": 727, "ule": 728, "\u0120In": 729, "atus": 730, "\u00d0\u00be": 731, "umber": 732, "atch": 733, "\u0120!": 734, "ray": 735, "type": 736, "ary": 737, "];": 738, "\u0120al": 739, "\u0120H": 740, "\u00d0\u00b5": 741, "fo": 742, "\u00d0\u00b0": 743, "';": 744, "\u01204": 745, "AR": 746, "fault": 747, "OR": 748, "ange": 749, "\u0120with": 750, "oid": 751, "\u010d\u010a\u010d": 752, "iv": 753, "\u0120res": 754, "\u01205": 755, "ang": 756, "\u00e3\u0123": 757, "yn": 758, "label": 759, "\");": 760, "old": 761, "\u0120else": 762, "io": 763, "rror": 764, "\u0120be": 765, "********": 766, "\u0120get": 767, "\u0120do": 768, "\u0120let": 769, "clu": 770, "so": 771, "\u0120className": 772, "En": 773, "uth": 774, "ta": 775, "low": 776, "enter": 777, "ink": 778, "ork": 779, "\u0120var": 780, "val": 781, "\u0120use": 782, "ource": 783, "ho": 784, "par": 785, "Con": 786, "min": 787, "wa": 788, "size": 789, "load": 790, "\u0120user": 791, "value": 792, "\"\"": 793, "Ex": 794, "Type": 795, "\u0120or": 796, "\u0120not": 797, "\u010a\u0109\u0109\u0109\u0109": 798, "Res": 799, "EN": 800, "\u0120)": 801, "oint": 802, "heck": 803, "pos": 804, "bject": 805, "\u0120value": 806, "AL": 807, "\u0120he": 808, "ID": 809, "String": 810, "\u0120an": 811, "\u0120type": 812, "ml": 813, "De": 814, "string": 815, "lex": 816, "\u0120en": 817, "clude": 818, "lock": 819, "color": 820, "\u0120wh": 821, "List": 822, "########": 823, "word": 824, "yst": 825, "self": 826, "ader": 827, "Ser": 828, "\u0120Re": 829, "comp": 830, "line": 831, "},": 832, "ide": 833, "SE": 834, "duct": 835, "\u010a\u0109\u0109\u0109": 836, "iel": 837, "rc": 838, "\u0120String": 839, "path": 840, "col": 841, "urrent": 842, "ix": 843, "ersion": 844, "\u00d0\u00b8": 845, "\u0120ro": 846, "ield": 847, "\u0120public": 848, "ener": 849, "loat": 850, "we": 851, "ystem": 852, "per": 853, "eng": 854, "\u0120def": 855, "\u0120*/": 856, "ib": 857, "const": 858, "12": 859, "count": 860, "\u0120file": 861, "\u010a\u0120\u0120": 862, "Se": 863, "\u00e3\u0125": 864, "ground": 865, "\u0120font": 866, "UL": 867, "Error": 868, "${": 869, "gs": 870, "\u010a\u0120\u0120\u0120\u0120\u0120\u0120\u0120\u0120\u0120\u0120\u0120\u0120\u0120\u0120\u0120\u0120\u0120\u0120\u0120\u0120\u0120\u0120\u0120\u0120\u0120\u0120\u0120\u0120\u0120\u0120\u0120\u0120": 871, "lib": 872, "\u0120com": 873, "test": 874, "err": 875, "\u0120ar": 876, "32": 877, "\u00d1\u0124": 878, "\u0120print": 879, "ace": 880, "ery": 881, "own": 882, "return": 883, "https": 884, "lient": 885, "ill": 886, "NA": 887, "mail": 888, "\u010d\u010a\u0120\u0120\u0120\u0120\u0120\u0120\u0120\u0120\u0120\u0120\u0120": 889, "\u0120:=": 890, "ator": 891, "ute": 892, "\u0120?": 893, "ud": 894, "\u0120function": 895, "map": 896, "ne": 897, "ument": 898, "ask": 899, "ded": 900, "class": 901, "ens": 902, "rite": 903, "])": 904, "CT": 905, "Ch": 906, "\u00e3\u0124": 907, "update": 908, "\u0120false": 909, "onent": 910, "To": 911, "time": 912, "25": 913, "ast": 914, "ence": 915, "RO": 916, "ak": 917, "\u0120par": 918, "\u0120bo": 919, "for": 920, "arget": 921, "\u00d0\u00bd": 922, "\u0120un": 923, "////": 924, "late": 925, "url": 926, "cho": 927, "\u0120/>": 928, "ep": 929, "are": 930, "input": 931, "odule": 932, "ong": 933, "11": 934, "pert": 935, "ave": 936, "riv": 937, "new": 938, "quire": 939, "].": 940, "\u00e4\u00b8": 941, "ount": 942, "User": 943, "NAME": 944, "ger": 945, "from": 946, "read": 947, "\u0120le": 948, "\u0120color": 949, "ackground": 950, "ackage": 951, "ength": 952, "var": 953, "\u012010": 954, "\u0120error": 955, "local": 956, "lement": 957, "print": 958, "\u0120k": 959, "rame": 960, "ync": 961, "\u0120&&": 962, "uc": 963, "wait": 964, "ody": 965, "base": 966, "State": 967, "({": 968, "ere": 969, "\u0120sc": 970, "\u0120app": 971, "000": 972, "ty": 973, "ry": 974, "\u010a\u0120\u0120\u0120\u0120\u0120\u0120\u0120\u0120\u0120\u0120\u0120\u0120\u0120\u0120\u0120\u0120\u0120\u0120\u0120\u0120\u0120\u0120\u0120\u0120\u0120\u0120\u0120": 975, "\u0120\u0120\u0120\u0120\u0120\u0120": 976, "mb": 977, "='": 978, "MA": 979, "sponse": 980, "roll": 981, "arch": 982, "code": 983, "json": 984, "\u0120it": 985, "Text": 986, "\u0120val": 987, "\u00e2\u0136": 988, "ample": 989, "span": 990, "unc": 991, "\u00d1\u0122": 992, "ark": 993, "ateg": 994, "DE": 995, "export": 996, "\u0120sh": 997, "../": 998, "assword": 999, "\u010a\u0120\u0120\u0120\u0120\u0120\u0120\u0120\u0120\u0120\u0120\u0120\u0120\u0120\u0120\u0120\u0120\u0120": 1000, "button": 1001, "tem": 1002, "ome": 1003, "\u0120comp": 1004, "\u00ef\u00bc": 1005, "IT": 1006, "\u0120\u00ec": 1007, "\u012020": 1008, "ssion": 1009, "64": 1010, "\u0120by": 1011, "ey": 1012, "emp": 1013, "title": 1014, "\u00d0\u00be\u00d0": 1015, "include": 1016, "rivate": 1017, "['": 1018, "umn": 1019, "\u0120u": 1020, "scription": 1021, "work": 1022, "\u0120add": 1023, "der": 1024, "``": 1025, "ree": 1026, "uild": 1027, "ob": 1028, "\u0120<<": 1029, "ou": 1030, "\u0120border": 1031, "mit": 1032, "image": 1033, "\u010d\u010a\u0120": 1034, "sub": 1035, "View": 1036, "================": 1037, "':": 1038, "Time": 1039, "ach": 1040, "index": 1041, "\u0120log": 1042, "NT": 1043, "splay": 1044, "main": 1045, "Sc": 1046, "be": 1047, "ash": 1048, "ify": 1049, "');": 1050, "\"]": 1051, "/*": 1052, "Item": 1053, "\u00d1\u0123": 1054, "config": 1055, "\u010a\u0120\u0120\u0120\u0120\u010a\u0120\u0120\u0120": 1056, "rect": 1057, "\u0120out": 1058, "html": 1059, "File": 1060, "\u0120import": 1061, "gra": 1062, "atic": 1063, "Comp": 1064, "PI": 1065, "pect": 1066, "\u0120test": 1067, "\u0120str": 1068, "layer": 1069, "core": 1070, "Key": 1071, "Ar": 1072, "lete": 1073, "\u0120${": 1074, "OT": 1075, "\u0120J": 1076, "py": 1077, "\u0120});": 1078, "Color": 1079, "build": 1080, "ils": 1081, "Value": 1082, "uto": 1083, "roid": 1084, "argin": 1085, "pre": 1086, "dir": 1087, "ale": 1088, "pec": 1089, "UT": 1090, "\u0120await": 1091, "not": 1092, "\u01208": 1093, "\u01206": 1094, "\u0120}}": 1095, "16": 1096, "view": 1097, "do": 1098, "\u0120result": 1099, "pen": 1100, "().": 1101, "\u0120null": 1102, "\u0120at": 1103, "model": 1104, "By": 1105, "\u0120void": 1106, "Tr": 1107, "width": 1108, "Bo": 1109, "ULL": 1110, "ken": 1111, "ations": 1112, "0000": 1113, "SS": 1114, "24": 1115, "\u0120number": 1116, "ms": 1117, "ner": 1118, "ION": 1119, "\u0120!=": 1120, "perty": 1121, "\u0120trans": 1122, "wh": 1123, "50": 1124, "ocument": 1125, "An": 1126, "ings": 1127, "\u0120create": 1128, "ise": 1129, "));": 1130, "vel": 1131, "lat": 1132, "Service": 1133, "(),": 1134, "ific": 1135, "--------------------------------": 1136, "mand": 1137, "\u0120width": 1138, "stance": 1139, "start": 1140, "content": 1141, "adding": 1142, "lace": 1143, "of": 1144, "\u0120la": 1145, "\u0120col": 1146, "sole": 1147, "message": 1148, "ax": 1149, "api": 1150, "Add": 1151, "ponse": 1152, "ilter": 1153, "style": 1154, "\u0120list": 1155, "\u0120flex": 1156, "./": 1157, "irst": 1158, "cc": 1159, "go": 1160, "using": 1161, "otal": 1162, "DI": 1163, "query": 1164, "\u0120ser": 1165, "ia": 1166, "back": 1167, "UR": 1168, "osition": 1169, "++": 1170, "\u0120Pro": 1171, "lick": 1172, "ET": 1173, "ps": 1174, "CO": 1175, "md": 1176, "ams": 1177, "ainer": 1178, "items": 1179, "pi": 1180, "this": 1181, "tri": 1182, "Me": 1183, "\u0120||": 1184, "indow": 1185, "']": 1186, "rid": 1187, "max": 1188, "ustom": 1189, "\u0120we": 1190, "\u0120default": 1191, "no": 1192, "ng": 1193, "center": 1194, "ated": 1195, "{{": 1196, "}}": 1197, "action": 1198, "icon": 1199, "gist": 1200, "\u0120err": 1201, "package": 1202, "pr": 1203, "\u0120input": 1204, "her": 1205, "td": 1206, "roup": 1207, "};": 1208, "\u0120href": 1209, "\u0120time": 1210, "red": 1211, "\u0120ass": 1212, "\u0120100": 1213, "top": 1214, "\u0120background": 1215, "Set": 1216, "\u0120private": 1217, "\u0120NULL": 1218, "\u0120key": 1219, "CE": 1220, "ffer": 1221, "ual": 1222, "CH": 1223, "space": 1224, "tn": 1225, "><": 1226, "\u0120};": 1227, "create": 1228, "face": 1229, "\u00e2\u0136\u0122": 1230, "status": 1231, "ose": 1232, "\u010a\u010a\u0120\u0120\u0120\u0120\u0120\u0120\u0120\u0120\u0120\u0120\u0120": 1233, "ie": 1234, "((": 1235, "ick": 1236, "\u0120margin": 1237, "\u0120z": 1238, "ler": 1239, "Path": 1240, "KE": 1241, "())": 1242, "\u0120;": 1243, "andle": 1244, "\u0120Ex": 1245, "ATE": 1246, "dif": 1247, "void": 1248, "temp": 1249, "enc": 1250, "ptions": 1251, "\u0120);": 1252, "db": 1253, "tra": 1254, "****************": 1255, "lean": 1256, "\u0120max": 1257, "length": 1258, "lication": 1259, "reen": 1260, "At": 1261, "\u0120mo": 1262, "fe": 1263, "\u0120float": 1264, "\u0120that": 1265, "($": 1266, "net": 1267, "ava": 1268, "Lo": 1269, "Request": 1270, "></": 1271, "\u00e7\u013c": 1272, "\u00e7\u013c\u0126": 1273, "\u0120()": 1274, "\u0120update": 1275, "inal": 1276, "link": 1277, "br": 1278, "\u0120form": 1279, "Button": 1280, "enu": 1281, "15": 1282, "uccess": 1283, "\u0120try": 1284, "\u0120message": 1285, "raw": 1286, "[\"": 1287, "state": 1288, "lob": 1289, "rem": 1290, "Par": 1291, "ound": 1292, "Get": 1293, "\u0120require": 1294, "\u0120sp": 1295, "env": 1296, "posit": 1297, "AN": 1298, "ategory": 1299, "\u0120style": 1300, "IL": 1301, "Date": 1302, "\u0120Con": 1303, "\u0120display": 1304, "valid": 1305, "result": 1306, "ys": 1307, "img": 1308, "\u00d0\u00bb": 1309, "\u0120case": 1310, "\u0120are": 1311, "[]": 1312, "\u0120std": 1313, "\u0120nil": 1314, "Form": 1315, "public": 1316, "ices": 1317, "amp": 1318, "\u010d\u010a\u0120\u0120\u0120\u0120\u0120\u0120\u0120\u0120\u0120\u0120\u0120\u0120\u0120\u0120\u0120": 1319, "\u0120The": 1320, "da": 1321, "AB": 1322, "ier": 1323, "mary": 1324, "uration": 1325, "He": 1326, "num": 1327, "\u0120height": 1328, "Response": 1329, "sk": 1330, "mon": 1331, "body": 1332, "roller": 1333, "ache": 1334, "\u0120\u00e2": 1335, "over": 1336, "org": 1337, "\u01207": 1338, "\u0120all": 1339, "\u0120padding": 1340, "Sh": 1341, "80": 1342, "\u0120path": 1343, "tx": 1344, "\u00e2\u0136\u0122\u00e2\u0136\u0122": 1345, "99": 1346, "point": 1347, "\u00e5\u0131": 1348, "ception": 1349, "Qu": 1350, "bar": 1351, "ics": 1352, "Model": 1353, "full": 1354, "ww": 1355, "cond": 1356, "lot": 1357, "son": 1358, "################": 1359, "\u0120config": 1360, "100": 1361, "stall": 1362, "\u0120image": 1363, "\u010a\u0120\u0120\u0120\u0120\u0120\u0120\u0120\u0120\u0120\u0120\u0120\u0120\u0120\u0120\u0120\u0120\u0120\u0120\u0120\u0120\u0120\u0120\u0120\u0120\u0120\u0120\u0120\u0120\u0120\u0120\u0120": 1364, "select": 1365, "uld": 1366, "30": 1367, "App": 1368, "\u0120model": 1369, "LO": 1370, "info": 1371, "ee": 1372, "\u0120response": 1373, "Size": 1374, "inter": 1375, "...": 1376, "ithub": 1377, "uthor": 1378, "Un": 1379, "\u0120current": 1380, "rol": 1381, "mt": 1382, "ear": 1383, "function": 1384, "char": 1385, "\u0120can": 1386, "Object": 1387, "Com": 1388, "14": 1389, "tom": 1390, "\u0120start": 1391, "qual": 1392, "lose": 1393, "\u0120then": 1394, "cl": 1395, "ector": 1396, "ES": 1397, "\u0120title": 1398, "itial": 1399, "df": 1400, "FF": 1401, "thod": 1402, "ream": 1403, "AD": 1404, "\u0120src": 1405, "frame": 1406, "Config": 1407, "current": 1408, "ql": 1409, "table": 1410, "cur": 1411, "node": 1412, "\u0120li": 1413, "by": 1414, "\u0120+=": 1415, "\u0120De": 1416, "sm": 1417, "upp": 1418, "\u0120console": 1419, "\u0120**": 1420, "ush": 1421, "\u0120\"\"\"": 1422, "right": 1423, "\u0120})": 1424, "pes": 1425, "\u0120request": 1426, "bin": 1427, "ln": 1428, "\u0120ext": 1429, "script": 1430, "\u0120sub": 1431, "head": 1432, "lection": 1433, "sv": 1434, "Or": 1435, "older": 1436, "ution": 1437, "Message": 1438, "pa": 1439, "\u0120[]": 1440, "FI": 1441, "\u0120inter": 1442, "\u0120size": 1443, "default": 1444, "ui": 1445, "\u00e5\u012a": 1446, "\u00c3\u00a9": 1447, "Col": 1448, "})": 1449, "\u0120pre": 1450, "github": 1451, "\u00ef\u00bc\u012e": 1452, "sign": 1453, "group": 1454, "post": 1455, "33": 1456, "\u0120Th": 1457, "ctor": 1458, "\u0120async": 1459, "module": 1460, "\u0120you": 1461, "radi": 1462, "\u0120char": 1463, "Test": 1464, "ock": 1465, "ments": 1466, "Event": 1467, "func": 1468, "true": 1469, "bot": 1470, "reak": 1471, "box": 1472, "Content": 1473, "\u0120System": 1474, "\u00e3\u0122": 1475, "\u010a\u010a\u0120\u0120\u0120\u0120\u0120": 1476, "ell": 1477, "iter": 1478, "\u0120content": 1479, "font": 1480, "ript": 1481, "ager": 1482, "src": 1483, "\u0120\u00eb": 1484, "fer": 1485, "Th": 1486, "lobal": 1487, "SER": 1488, "\u0120]": 1489, "LI": 1490, "ider": 1491, "Al": 1492, "\u0120min": 1493, "22": 1494, "\u00d8\u00a7": 1495, "18": 1496, "\u0120<=": 1497, "\u0120q": 1498, "mat": 1499, "po": 1500, "////////": 1501, "Up": 1502, "nav": 1503, "\u0120line": 1504, "oken": 1505, "19": 1506, "fore": 1507, "40": 1508, "([": 1509, "\u0120===": 1510, "request": 1511, "bl": 1512, "cord": 1513, "down": 1514, "\u0120(!": 1515, "Code": 1516, "pend": 1517, "EX": 1518, "}/": 1519, "pository": 1520, "sed": 1521, "\u0120center": 1522, "next": 1523, "PA": 1524, "host": 1525, "\u0120lo": 1526, "){": 1527, "eta": 1528, "\u0120run": 1529, "iable": 1530, "\\\\": 1531, "UN": 1532, ";;": 1533, "move": 1534, "check": 1535, "\u0120num": 1536, "\u0120[\"": 1537, "left": 1538, "property": 1539, "\u0120main": 1540, "anager": 1541, "PO": 1542, "Input": 1543, "ract": 1544, "pl": 1545, "\u0120List": 1546, "13": 1547, "bs": 1548, "height": 1549, "][": 1550, "sw": 1551, "\u00e4\u00bb": 1552, "rl": 1553, "trans": 1554, "ormal": 1555, "page": 1556, "Int": 1557, "cle": 1558, "\u010a\u0120\u0120\u0120\u0120\u0120\u0120\u0120\u0120\u010a\u0120\u0120\u0120\u0120\u0120\u0120\u0120": 1559, "Le": 1560, "target": 1561, "\u0120NOT": 1562, "\u010a\u0109\u0109\u0109\u0109\u0109\u0109": 1563, "\u0120assert": 1564, "Image": 1565, "\u0120no": 1566, "product": 1567, "the": 1568, "\u0120index": 1569, "oin": 1570, "rap": 1571, "55": 1572, "Status": 1573, "ning": 1574, "aw": 1575, "Log": 1576, "bug": 1577, "version": 1578, "any": 1579, "We": 1580, "\u0120User": 1581, "\u0120per": 1582, "nel": 1583, "\u00ec\u013f": 1584, "ses": 1585, "block": 1586, "\u010a\u0120\u0120\u0120\u0120\u0120\u0120": 1587, "alc": 1588, "\u0120ac": 1589, "\u0120your": 1590, "17": 1591, "(&": 1592, "\u00d0\u00b0\u00d0": 1593, "23": 1594, "Not": 1595, "\u00d1\u0125": 1596, "hed": 1597, "board": 1598, "\u010d\u010a\u0109": 1599, "Info": 1600, "ical": 1601, "ts": 1602, "Element": 1603, "cept": 1604, "\u0120,": 1605, "MP": 1606, "sum": 1607, "idd": 1608, "\u0120Y": 1609, "ible": 1610, "rop": 1611, "event": 1612, "ai": 1613, "echo": 1614, "mi": 1615, "\u0120Create": 1616, "\u0120static": 1617, "\u010a\u0120\u0120\u0120\u0120\u0120\u0120\u0120\u0120\u0120\u0120\u0120\u0120\u0120\u0120\u0120\u0120\u0120\u0120\u0120\u0120\u0120": 1618, "\u0120check": 1619, "Index": 1620, "\u0120just": 1621, "%;": 1622, ">>": 1623, "RA": 1624, "find": 1625, "token": 1626, "tern": 1627, "CK": 1628, "\u0120select": 1629, "its": 1630, "sl": 1631, "lease": 1632, "ank": 1633, "header": 1634, "uble": 1635, "\u0120echo": 1636, "ters": 1637, "DIR": 1638, "email": 1639, "component": 1640, "Field": 1641, "reg": 1642, "esc": 1643, "Page": 1644, "section": 1645, "01": 1646, "mplement": 1647, "\u0120over": 1648, "gray": 1649, "gister": 1650, "\u0120status": 1651, "andom": 1652, "Map": 1653, "###": 1654, "\u0120android": 1655, "\u0120DE": 1656, "location": 1657, "KEY": 1658, "trib": 1659, "\u0120X": 1660, "\u0120state": 1661, "place": 1662, "project": 1663, "\u0120us": 1664, "flex": 1665, "LA": 1666, "lin": 1667, "ature": 1668, "Controller": 1669, "\u0120py": 1670, "response": 1671, "led": 1672, "\u0120position": 1673, "\u0120co": 1674, "tings": 1675, "vert": 1676, "erial": 1677, "());": 1678, "\u0120Get": 1679, "\u01209": 1680, "ization": 1681, "\u00d0\u00b5\u00d0": 1682, "ures": 1683, "\u0120build": 1684, "\u0120output": 1685, "react": 1686, "\u0120None": 1687, "\u00e6\u013e": 1688, "loy": 1689, "serv": 1690, "xy": 1691, "struct": 1692, "ular": 1693, "\u0120tra": 1694, "thon": 1695, "Result": 1696, "\u0120\u0120\u0120\u0120\u0120\u0120\u0120\u0120\u0120\u0120\u0120\u0120\u0120\u0120\u0120\u0120\u0120\u0120\u0120\u0120\u0120\u0120\u0120\u0120\u0120\u0120\u0120\u0120\u0120\u0120\u0120\u0120": 1697, "RI": 1698, "Count": 1699, "my": 1700, "float": 1701, "WOR": 1702, "\u0120ne": 1703, "\u0120version": 1704, "\u0120table": 1705, "With": 1706, "medi": 1707, "\u00e7\u0136": 1708, "():": 1709, "\u0120{{": 1710, "ug": 1711, "etch": 1712, "\u0120expect": 1713, "\u0120K": 1714, "'),": 1715, "\u0120label": 1716, "define": 1717, "The": 1718, "$(": 1719, "param": 1720, "sets": 1721, "Context": 1722, "\u010a\u0120\u0120\u0120\u0120\u0120\u0120\u0120\u0120\u0120\u0120\u0120\u0120": 1723, "\u010d\u010a\u010d\u010a\u0120\u0120\u0120": 1724, "abel": 1725, "\u0120En": 1726, "ient": 1727, "client": 1728, "\u0120Res": 1729, "ating": 1730, "png": 1731, "nection": 1732, "ender": 1733, "pc": 1734, "\u0120\u0120\u0120\u0120\u0120\u0120\u0120\u0120\u0120\u0120\u0120": 1735, "\u0120document": 1736, "init": 1737, "len": 1738, "ape": 1739, "part": 1740, "\u0120org": 1741, "gb": 1742, "option": 1743, "icle": 1744, "\u0120fa": 1745, "\u0120Ar": 1746, "\u0120read": 1747, "\u010d\u010a\u0120\u0120\u0120\u0120\u0120": 1748, "rag": 1749, "card": 1750, "\u0120node": 1751, "source": 1752, "\u0120description": 1753, "Component": 1754, "Out": 1755, "nect": 1756, "\u00d1\u0131": 1757, "open": 1758, "output": 1759, "Ac": 1760, "hema": 1761, "orage": 1762, "case": 1763, "Token": 1764, "\u0120<-": 1765, "FA": 1766, "lugin": 1767, "iled": 1768, "number": 1769, "field": 1770, "\u0120App": 1771, "\u0120Set": 1772, "\u0120temp": 1773, "sert": 1774, "Select": 1775, "Client": 1776, "andler": 1777, "gr": 1778, "\u0120/*": 1779, "PE": 1780, "ABLE": 1781, "Sub": 1782, "\u0120count": 1783, "ility": 1784, "\u0120code": 1785, "white": 1786, "Group": 1787, "%%": 1788, "ats": 1789, "\u00e5\u0127": 1790, "On": 1791, "ized": 1792, "\u00e5\u0132": 1793, "Url": 1794, "\u0120up": 1795, "description": 1796, "Ro": 1797, "Node": 1798, "\u00e0\u00b8": 1799, "DO": 1800, "lable": 1801, "ROM": 1802, "ING": 1803, "search": 1804, "Line": 1805, "false": 1806, "bg": 1807, "ume": 1808, "\u0120Se": 1809, "password": 1810, "php": 1811, "\u0120$(": 1812, "\u0120cur": 1813, "spring": 1814, "\u012012": 1815, "igh": 1816, "server": 1817, "\u0120url": 1818, "'s": 1819, "olean": 1820, "format": 1821, "\u0120target": 1822, "\u0120An": 1823, "mod": 1824, "}\"": 1825, "```": 1826, "service": 1827, "\u0120item": 1828, "\u0120Tr": 1829, "\u00e5\u00ae": 1830, "ux": 1831, "\u0120ID": 1832, "abled": 1833, "object": 1834, "\u0120any": 1835, "\u00e4\u00ba": 1836, "\u0120justify": 1837, "?.": 1838, "with": 1839, "\"></": 1840, "lit": 1841, "ride": 1842, "btn": 1843, "\u0120page": 1844, "container": 1845, "\u0120\"$": 1846, "lis": 1847, "\u0120event": 1848, "ci": 1849, "cre": 1850, "ions": 1851, "raph": 1852, "Of": 1853, "\u0120required": 1854, "\u0120http": 1855, "Create": 1856, "\u0120///": 1857, "As": 1858, "\u0120ad": 1859, "\u0120will": 1860, "ld": 1861, "ster": 1862, "\u0120local": 1863, "append": 1864, "For": 1865, "ffset": 1866, "\u00e4\u00bd": 1867, "dev": 1868, "Box": 1869, "cor": 1870, "Change": 1871, "sor": 1872, "light": 1873, "Build": 1874, "\u0120valid": 1875, "\u00f0\u0141": 1876, "\u0120email": 1877, "\u0120Cont": 1878, "\u0120date": 1879, "\u00d1\u012d": 1880, "True": 1881, "ading": 1882, "ification": 1883, "radius": 1884, "af": 1885, "\u0120::": 1886, "tes": 1887, "\u0120__": 1888, "rix": 1889, "\u0120\"<": 1890, "CRE": 1891, "ally": 1892, "200": 1893, "udent": 1894, "\u0120Q": 1895, "SI": 1896, "Loc": 1897, "\u0120base": 1898, "\u010a\u010a\u0109": 1899, "else": 1900, "ily": 1901, "other": 1902, "\u0120point": 1903, "mem": 1904, "All": 1905, "press": 1906, "\u012016": 1907, "root": 1908, "\u0120Add": 1909, "ense": 1910, "alid": 1911, "unded": 1912, "ote": 1913, "---": 1914, "\u00e6\u0138": 1915, "\u0120ent": 1916, "\u0120struct": 1917, "OL": 1918, "pri": 1919, "\u0120Date": 1920, "uter": 1921, "INT": 1922, "Us": 1923, "\u0120catch": 1924, "\u0120method": 1925, "du": 1926, "\u0120sol": 1927, "Co": 1928, "ends": 1929, "android": 1930, "\u0120product": 1931, ":\"": 1932, "itor": 1933, "](": 1934, "run": 1935, "\u0120INT": 1936, "ario": 1937, "Rout": 1938, "\u0120\"@": 1939, "css": 1940, "web": 1941, "template": 1942, "std": 1943, "weight": 1944, "mpty": 1945, "\u00c3\u00a1": 1946, "Click": 1947, "\u0120spec": 1948, "\u0120act": 1949, ">(": 1950, "\u0120exist": 1951, "dio": 1952, "Exception": 1953, "filter": 1954, "Mo": 1955, "SON": 1956, "500": 1957, "adow": 1958, "\u00e6\u0137": 1959, "\u0120total": 1960, "auth": 1961, "pper": 1962, "util": 1963, "\u010a\u0120\u0120\u0120\u0120\u0120\u0120\u0120\u0120\u0120\u0120\u0120\u0120\u0120\u0120\u0120\u0120\u0120\u0120\u0120\u0120\u0120\u0120\u0120\u0120\u0120\u0120\u0120\u0120\u0120\u0120\u0120\u0120\u0120\u0120\u0120": 1964, "\u0120%}": 1965, "ero": 1966, "ND": 1967, "\u0120left": 1968, "/>": 1969, "\u0120has": 1970, "position": 1971, "TO": 1972, "\u0120'@": 1973, "gram": 1974, "ffect": 1975, "\u0120items": 1976, "\u00d0\u00ba": 1977, "\u0120break": 1978, "\u0120),": 1979, "._": 1980, "\u0120call": 1981, "ake": 1982, "DB": 1983, "ich": 1984, "\u0120my": 1985, "upport": 1986, "auto": 1987, "book": 1988, "tag": 1989, "TE": 1990, "\u0120~": 1991, "\u0120row": 1992, "\u0120Text": 1993, "Array": 1994, "opy": 1995, "45": 1996, "args": 1997, "\u010a\u0109\u0109\u0109\u0109\u0109": 1998, "\u0120mat": 1999, "ates": 2000, "stri": 2001, "\u0120pr": 2002, "direct": 2003, "task": 2004, "ogle": 2005, "mplementation": 2006, "ULT": 2007, "erson": 2008, "HT": 2009, "lg": 2010, "Action": 2011, "\u0120Bo": 2012, "hould": 2013, "\u0120block": 2014, "\u00c3\u00b3": 2015, "man": 2016, "\u00e5\u012c": 2017, "utes": 2018, "write": 2019, ".\"": 2020, "ado": 2021, "arg": 2022, "\u0120...": 2023, "\u0120%>": 2024, "\u0120vec": 2025, "New": 2026, "\u0120column": 2027, "vide": 2028, "\u0120top": 2029, "cd": 2030, "No": 2031, "\u0120gener": 2032, "\u0120range": 2033, "Inter": 2034, "\u0120when": 2035, "VER": 2036, "\u0120object": 2037, "\u0120\"/": 2038, "\"),": 2039, "bottom": 2040, "show": 2041, "dis": 2042, "require": 2043, ")))": 2044, "GE": 2045, "last": 2046, "ined": 2047, "Sp": 2048, "ename": 2049, "vis": 2050, "60": 2051, "try": 2052, "\u0120-->": 2053, "Number": 2054, "layout": 2055, "\u0120Data": 2056, "\u0120view": 2057, "ative": 2058, "Product": 2059, "\u00e8\u00bf": 2060, "\u012015": 2061, "Is": 2062, "================================": 2063, "\u0120client": 2064, "\u00d9\u0126": 2065, "\u0120{}": 2066, "play": 2067, "adata": 2068, "\u00e2\u0122": 2069, "gen": 2070, "Link": 2071, "\u0120handle": 2072, "\u00ed\u0137": 2073, "\u0120bool": 2074, "flow": 2075, "ied": 2076, "Version": 2077, "mut": 2078, "column": 2079, "Table": 2080, "ca": 2081, "UI": 2082, "\u0120Int": 2083, "\u0120IN": 2084, "}\")": 2085, "\u0120np": 2086, "\u0120RE": 2087, "Label": 2088, "Query": 2089, "\u00e8\u00af": 2090, "mount": 2091, "ays": 2092, "Module": 2093, "\u0120align": 2094, "\u0120auto": 2095, "URL": 2096, "\u0120bu": 2097, "\u0120token": 2098, "!--": 2099, "lack": 2100, "Ed": 2101, "ENT": 2102, "\u00e6\u012a": 2103, "angu": 2104, "push": 2105, "\u0120while": 2106, "\u012050": 2107, "Card": 2108, "\u0120qu": 2109, "}`": 2110, "align": 2111, "]]": 2112, "\u0109\u0109\u0109\u0109": 2113, "\u0120field": 2114, "\u0120right": 2115, "ivity": 2116, "\u00e5\u00a4": 2117, "Lay": 2118, "Repository": 2119, "call": 2120, "\u010d\u010a\u0120\u0120\u0120\u0120\u0120\u0120\u0120\u0120\u0120\u0120\u0120\u0120\u0120\u0120\u0120\u0120\u0120\u0120\u0120": 2121, "context": 2122, "arent": 2123, "ttp": 2124, "array": 2125, "\u0120first": 2126, "\u0120work": 2127, ">,": 2128, "store": 2129, "TH": 2130, "21": 2131, "git": 2132, "UE": 2133, "Act": 2134, "\u0120\u0120\u0120\u0120\u0120\u0120\u0120\u0120\u0120": 2135, "rary": 2136, "\u0120mem": 2137, "../../": 2138, "\u0120have": 2139, "\u0120os": 2140, "ik": 2141, "annel": 2142, "anguage": 2143, "\u0120Un": 2144, "EMA": 2145, "resh": 2146, "txt": 2147, "Be": 2148, "\u0120\u0120\u0120\u0120\u0120\u0120\u0120\u0120\u0120\u0120": 2149, "MO": 2150, "Manager": 2151, "uper": 2152, "\u012030": 2153, "WORD": 2154, "cy": 2155, "doc": 2156, "LECT": 2157, "alcul": 2158, "lt": 2159, "vo": 2160, "\u0120element": 2161, "uid": 2162, "\u0120throw": 2163, "\u0120part": 2164, "files": 2165, "\u0120https": 2166, "vider": 2167, "ware": 2168, "ios": 2169, "\u0120using": 2170, "\u0120none": 2171, "SC": 2172, "(_": 2173, "sol": 2174, "fil": 2175, "xl": 2176, "\u0120map": 2177, "\u0120next": 2178, "ories": 2179, "address": 2180, "itch": 2181, "90": 2182, "\u00e1\u00bb": 2183, "\u0120len": 2184, "\u0120match": 2185, "Ref": 2186, "active": 2187, "pendenc": 2188, "\u0120Comp": 2189, "\u0120This": 2190, "\u0120\"^": 2191, "\u0120db": 2192, "});": 2193, "Ad": 2194, "met": 2195, "\u0120java": 2196, "\u0120open": 2197, "\u00d0\u00b5\u00d0\u00bd": 2198, "Met": 2199, "\u0120\"\"": 2200, "acity": 2201, "cent": 2202, "example": 2203, "\u0120sign": 2204, "\u00d1\u012e": 2205, "iron": 2206, "ById": 2207, "\u0120Ch": 2208, "Dis": 2209, "hes": 2210, "\u0120\u010a\u0120\u0120\u0120": 2211, "\u0120format": 2212, "\u00e3\u0122\u0124": 2213, "ities": 2214, "ween": 2215, "\u0120bg": 2216, "\u0120fn": 2217, "\u0120success": 2218, "mode": 2219, "\u0120process": 2220, "Class": 2221, "latform": 2222, "\u0120project": 2223, "\u0120final": 2224, "\u0120go": 2225, "cker": 2226, "\u0120\u0120\u0120\u0120\u0120\u0120\u0120\u0120\u0120\u0120\u0120\u0120": 2227, "mark": 2228, "rection": 2229, "\u0120password": 2230, "\u0120],": 2231, "\u0120show": 2232, "75": 2233, "idden": 2234, "Trans": 2235, "++)": 2236, "idget": 2237, "first": 2238, "ference": 2239, "US": 2240, "\u0120>=": 2241, "GET": 2242, "components": 2243, "\u0120Up": 2244, "API": 2245, "www": 2246, "dict": 2247, "\u0120initial": 2248, "Per": 2249, "pg": 2250, "\u0120Error": 2251, "EMAIL": 2252, "\u0120load": 2253, "make": 2254, "strong": 2255, "home": 2256, "exec": 2257, "\u0120should": 2258, "\u00e7\u0136\u00a8": 2259, "Frame": 2260, "ift": 2261, "\"\"\"": 2262, "stamp": 2263, "mission": 2264, "]);": 2265, "display": 2266, "PASS": 2267, "\u0120\u010a": 2268, "Tra": 2269, "?:": 2270, "req": 2271, "\u0120'./": 2272, "-[": 2273, "imp": 2274, "eturn": 2275, "From": 2276, "null": 2277, "les": 2278, "\u0120context": 2279, "\u0120json": 2280, "println": 2281, "\u0120install": 2282, "ols": 2283, "\u0120Sc": 2284, "System": 2285, "ared": 2286, "delete": 2287, "types": 2288, "Point": 2289, "ameters": 2290, "\u00e6\u013a": 2291, "\").": 2292, "ED": 2293, "\u0120ph": 2294, "\u0120found": 2295, "ML": 2296, "heet": 2297, "\u0120rounded": 2298, "Task": 2299, "cs": 2300, "meta": 2301, "\u0120where": 2302, "\u0120group": 2303, "ustomer": 2304, "\u0120fe": 2305, "Position": 2306, "\u0120array": 2307, "sg": 2308, "ding": 2309, "params": 2310, ")]": 2311, "\u0120source": 2312, "atures": 2313, "Update": 2314, "mg": 2315, "\u0120query": 2316, "ting": 2317, "ins": 2318, "\u010a\u010a\u010a\u010a": 2319, "gn": 2320, "\u0120order": 2321, "now": 2322, "Str": 2323, "ymb": 2324, "66": 2325, "\u0120uint": 2326, "\u00d0\u00b2": 2327, "gg": 2328, "admin": 2329, "game": 2330, "\u0120action": 2331, "(--": 2332, "}>": 2333, "\u0120gap": 2334, "\u0120application": 2335, "ower": 2336, "amily": 2337, "Style": 2338, "UM": 2339, "attern": 2340, "\u0120env": 2341, "\u0120address": 2342, "Sto": 2343, "\u0120\u00d0\u00bf": 2344, "join": 2345, "\u0120((": 2346, "tribute": 2347, "Title": 2348, "\u0120find": 2349, "process": 2350, "CON": 2351, "lp": 2352, "\"))": 2353, "ven": 2354, "\u0120($": 2355, "Bu": 2356, "grid": 2357, "fin": 2358, "close": 2359, "escri": 2360, "\u00e7\u00bb": 2361, "\u00d1\u0123\u00d1\u0124": 2362, "ors": 2363, "PASSWORD": 2364, "Fa": 2365, "\u0120ed": 2366, "\u0120so": 2367, "Address": 2368, "05": 2369, "izer": 2370, "mer": 2371, "Host": 2372, "etween": 2373, "opt": 2374, "\u0120ob": 2375, "\u0120useState": 2376, "ble": 2377, "images": 2378, "ains": 2379, "\u0120last": 2380, "Project": 2381, "\u00e8\u00ae": 2382, "ene": 2383, "onth": 2384, "category": 2385, "\u0120command": 2386, "menu": 2387, "FAULT": 2388, "28": 2389, "ique": 2390, "\u010a\u010a\u0120\u0120\u0120\u0120\u0120\u0120\u0120\u0120\u0120\u0120\u0120\u0120\u0120\u0120\u0120": 2391, "vim": 2392, "gener": 2393, "oter": 2394, "\u010d\u010a\u0109\u0109": 2395, "river": 2396, "spec": 2397, "nb": 2398, "global": 2399, "\u0120sum": 2400, "Deta": 2401, "framework": 2402, "=\"/": 2403, "cp": 2404, "\u0120post": 2405, "\u00e6\u0137\u00b0": 2406, "\u0120ref": 2407, "arn": 2408, "\u0120(\"": 2409, "system": 2410, "Icon": 2411, "\u0120cor": 2412, "Write": 2413, "total": 2414, "rit": 2415, "\u0120direct": 2416, "IC": 2417, "\u0120\u00ea": 2418, "unter": 2419, "ump": 2420, "\u00e5\u013e": 2421, "44": 2422, "Mode": 2423, "Password": 2424, "\u0120task": 2425, "///": 2426, "\u0120server": 2427, "\u0120link": 2428, "********************************": 2429, "HE": 2430, "udio": 2431, "static": 2432, "/**": 2433, "____": 2434, "Open": 2435, "PRO": 2436, "Pos": 2437, "parse": 2438, "Window": 2439, "\u0120TABLE": 2440, "ines": 2441, "\u0120File": 2442, "<<": 2443, "\u0120lib": 2444, "ameter": 2445, "Auth": 2446, "ward": 2447, "Equal": 2448, "\u0120\u00e6": 2449, "27": 2450, "compose": 2451, "AA": 2452, "ns": 2453, "Start": 2454, "\u0120pub": 2455, "emo": 2456, "\u0120Test": 2457, "xsl": 2458, "\u0120child": 2459, "\u0120Lo": 2460, "styles": 2461, "player": 2462, "nal": 2463, "\u0120place": 2464, "\u0120ax": 2465, "Dir": 2466, "IG": 2467, "oto": 2468, "ironment": 2469, "ging": 2470, "\u00c3\u00a7": 2471, "\u0120alt": 2472, "\"/>": 2473, "username": 2474, "PT": 2475, "holder": 2476, "255": 2477, "utils": 2478, ")}": 2479, "~~": 2480, "\u0120ON": 2481, "angle": 2482, "\u0120port": 2483, "click": 2484, "\u0120only": 2485, "Base": 2486, "login": 2487, "ollow": 2488, "pk": 2489, "las": 2490, "CC": 2491, "`,": 2492, "\u0120^": 2493, "blue": 2494, "gress": 2495, "\u0120button": 2496, "HER": 2497, "az": 2498, "\u00e8\u00a1": 2499, "wo": 2500, "\u0120values": 2501, "Ent": 2502, "resent": 2503, "unk": 2504, "FILE": 2505, "mov": 2506, "Options": 2507, "command": 2508, "\u0120icon": 2509, "\u0120include": 2510, "*/": 2511, "\u0120files": 2512, "\u00e2\u0136\u0122\u00e2\u0136\u0122\u00e2\u0136\u0122\u00e2\u0136\u0122": 2513, "ypes": 2514, "\u0120rgb": 2515, "\u010a\u0120\u0120\u010a\u0120": 2516, "\u0120back": 2517, "car": 2518, "\u0120op": 2519, "border": 2520, "\u0120If": 2521, "plot": 2522, "ptr": 2523, "Order": 2524, "\u00d1\u0129": 2525, "odal": 2526, "EXT": 2527, "\u0120change": 2528, "svg": 2529, "acter": 2530, "orld": 2531, "imal": 2532, "(`": 2533, "\u0120Color": 2534, "ade": 2535, "formation": 2536, "unit": 2537, "Default": 2538, "\u0120te": 2539, "ocus": 2540, "Width": 2541, "\u0120func": 2542, "cr": 2543, "CHAR": 2544, "save": 2545, "\u0120head": 2546, "\u0120API": 2547, "refix": 2548, "cket": 2549, "\u0120200": 2550, "26": 2551, "\u00c3\u00a3": 2552, "ultip": 2553, "\u0120args": 2554, "level": 2555, "Check": 2556, "printf": 2557, "day": 2558, "SH": 2559, "Case": 2560, "\u010a\u0120\u0120\u0120\u0120\u0120\u0120\u0120\u0120\u0120\u0120\u0120\u0120\u0120\u0120\u0120\u0120\u0120\u0120\u0120\u0120\u0120\u0120\u0120\u0120\u0120": 2561, "\u0120body": 2562, "35": 2563, "cat": 2564, "\u0120\u0120\u0120\u0120\u0120\u0120\u0120\u0120\u0120\u0120\u0120\u0120\u0120\u0120\u0120": 2565, "\u010a\u0120\u0120\u0120\u0120\u0120\u0120\u0120\u0120\u0120\u0120\u0120\u0120\u0120\u0120\u0120\u0120\u0120\u0120\u0120\u0120\u0120\u0120\u0120\u0120\u0120\u0120\u0120\u0120\u0120\u0120\u0120\u0120\u0120\u0120\u0120\u0120\u0120\u0120\u0120": 2566, "88": 2567, "\u0120mb": 2568, "velo": 2569, "escription": 2570, "split": 2571, "\u0120\"\\": 2572, "\u0120CO": 2573, "TP": 2574, "assert": 2575, "\u0120fetch": 2576, "Email": 2577, "UP": 2578, "\u0120\u00e5": 2579, "\u0120ra": 2580, "\u0120Check": 2581, "Game": 2582, "iss": 2583, "scale": 2584, "=\"#": 2585, "ential": 2586, "pub": 2587, "primary": 2588, "POST": 2589, "olume": 2590, "tab": 2591, "ALL": 2592, "conf": 2593, "ces": 2594, "\u0120created": 2595, "Pr": 2596, "avig": 2597, "entity": 2598, "\u0120down": 2599, "\u0120av": 2600, "author": 2601, "={{": 2602, "Gener": 2603, "fter": 2604, "\"><": 2605, "Var": 2606, "\u0120Me": 2607, "\u010d\u010a\u010d\u010a": 2608, "idx": 2609, ".*": 2610, "Valid": 2611, "////////////////": 2612, "hover": 2613, "entic": 2614, "BU": 2615, "Post": 2616, "fr": 2617, "fn": 2618, "\u00e3\u0123\u00ae": 2619, "lag": 2620, "\u0120ab": 2621, "common": 2622, "04": 2623, "icro": 2624, "ATH": 2625, "window": 2626, "VE": 2627, "gre": 2628, "Handler": 2629, "Mat": 2630, "','": 2631, "Layout": 2632, "pha": 2633, "\"],": 2634, "}</": 2635, "\u0120cout": 2636, "\u0120We": 2637, "YPE": 2638, "\u0120\u00ed": 2639, "\u00d0\u00be\u00d0\u00b2": 2640, "'t": 2641, "ias": 2642, "(:": 2643, "\u0120ST": 2644, "02": 2645, "none": 2646, "perties": 2647, "{%": 2648, "lug": 2649, "\",\"": 2650, "localhost": 2651, "cache": 2652, "(\"/": 2653, "instance": 2654, "\u0120>>": 2655, "ymbol": 2656, "\u0120'<": 2657, ")/": 2658, "\u0120['": 2659, "\u00d0\u00bc": 2660, "END": 2661, "256": 2662, "36": 2663, "peed": 2664, "background": 2665, "ifier": 2666, "Menu": 2667, "np": 2668, "SET": 2669, "vector": 2670, "\u0120\"./": 2671, "exp": 2672, ">\"": 2673, "ek": 2674, "resource": 2675, "400": 2676, "hod": 2677, "\u010a\u0120\u0120\u0120\u0120\u0120\u0120\u0120\u0120\u0120\u0120": 2678, "oth": 2679, "\u0120exp": 2680, "ready": 2681, "CREATE": 2682, "\u0120into": 2683, "\u0120FROM": 2684, "price": 2685, "bind": 2686, "eq": 2687, "Do": 2688, "Server": 2689, "cope": 2690, "\u0120pos": 2691, "dia": 2692, "dist": 2693, "IME": 2694, "\u0120];": 2695, "\u0120ren": 2696, "\u0120que": 2697, "\u00c3\u00a3o": 2698, "pendencies": 2699, "################################": 2700, "wrap": 2701, "2024": 2702, "\u0120transition": 2703, "\u0120used": 2704, "Pre": 2705, "IO": 2706, "\u0120delete": 2707, "bed": 2708, "\u0120\"#": 2709, "ixed": 2710, "\u0120em": 2711, "\u00eb\u012d": 2712, "\u0120one": 2713, "\u0120implementation": 2714, "29": 2715, "And": 2716, "Web": 2717, "plugin": 2718, "\u0120other": 2719, "assets": 2720, "\u0120fun": 2721, "SELECT": 2722, "imer": 2723, "\u00e5\u00ba": 2724, "pping": 2725, "\u0120make": 2726, "peri": 2727, "\u0120<!--": 2728, "\u00c3\u0143": 2729, "dk": 2730, "34": 2731, "under": 2732, "End": 2733, "session": 2734, "\u0120printf": 2735, "iant": 2736, "has": 2737, "TER": 2738, "bre": 2739, "\u0120box": 2740, "\u0120system": 2741, "change": 2742, "apt": 2743, "ASE": 2744, "orch": 2745, "QL": 2746, "\u0120filter": 2747, "\u0120grid": 2748, "\u0120variable": 2749, "step": 2750, "67": 2751, "\u0120game": 2752, "ron": 2753, "\u0120transform": 2754, "ran": 2755, "\u0120window": 2756, "lative": 2757, "\u0120sw": 2758, "tails": 2759, "\u0120KEY": 2760, "NO": 2761, "\u0120Update": 2762, "\u0120each": 2763, "boot": 2764, "second": 2765, "side": 2766, "NS": 2767, "refer": 2768, "31": 2769, "leted": 2770, "als": 2771, "begin": 2772, "air": 2773, "\u0120arg": 2774, "\u0120double": 2775, "Users": 2776, "ORT": 2777, "istory": 2778, "\u00e3\u0125\u00bc": 2779, "\u0120params": 2780, "ration": 2781, "\u0120mov": 2782, "vices": 2783, "\u00e2\u0138": 2784, "ansp": 2785, "uint": 2786, "HERE": 2787, "\u0120Log": 2788, "\u0120True": 2789, "Target": 2790, "models": 2791, "si": 2792, "ension": 2793, "Entity": 2794, "37": 2795, "google": 2796, "child": 2797, "olic": 2798, "Header": 2799, "\u0120Com": 2800, "nbsp": 2801, "handle": 2802, "very": 2803, "\u0120length": 2804, "\u0120oper": 2805, "loud": 2806, "Char": 2807, "\u0120extends": 2808, "%{": 2809, "Print": 2810, "\u0120CON": 2811, "\u0120\u00d0\u00b2": 2812, "!(": 2813, "\u0120tag": 2814, "[:": 2815, "\u0120space": 2816, "alth": 2817, "bold": 2818, "\u0120rel": 2819, "lear": 2820, "Num": 2821, "\u0120/**": 2822, "control": 2823, "IM": 2824, "48": 2825, "IP": 2826, "\u0120Sh": 2827, "Player": 2828, "(()": 2829, "Api": 2830, "\u0120\u00d1\u0123": 2831, "Column": 2832, "method": 2833, "success": 2834, "\u0120Name": 2835, "ait": 2836, "\u00e5\u0143": 2837, "remove": 2838, "expect": 2839, "Command": 2840, "imation": 2841, "era": 2842, "ish": 2843, "cpp": 2844, "Row": 2845, "\u0120AS": 2846, "600": 2847, "(-": 2848, "users": 2849, "uest": 2850, "ists": 2851, "\u00d0\u00b4": 2852, "\u00e1\u00ba": 2853, "\u0120para": 2854, "\u010a\u010a\u010a": 2855, "\u0120interface": 2856, "\u0120DEFAULT": 2857, "Read": 2858, "\u0120dis": 2859, "\u0120androidx": 2860, "ptional": 2861, "Dire": 2862, "romise": 2863, "\u0120sm": 2864, "buffer": 2865, "ensor": 2866, "\u00d0\u00b0\u00d0\u00bd": 2867, "\u0120\"${": 2868, "\u0120<%": 2869, "IS": 2870, "router": 2871, "values": 2872, "HO": 2873, "uction": 2874, "\u0120vis": 2875, "\u00e9\u0122": 2876, "lan": 2877, "Source": 2878, "msg": 2879, "draw": 2880, "Ph": 2881, "connect": 2882, "38": 2883, "').": 2884, "EG": 2885, "endif": 2886, "\u0120auth": 2887, "\u0120module": 2888, "\u0120mode": 2889, "\u0120Z": 2890, "media": 2891, "send": 2892, "\u0120Ser": 2893, "Store": 2894, "device": 2895, "Mem": 2896, "\u0120\u00d8": 2897, "ious": 2898, "pth": 2899, "\u0120mut": 2900, "jpg": 2901, "300": 2902, "etwork": 2903, "\u012024": 2904, "\u00e6\u013a\u00af": 2905, "ret": 2906, "\u0120('": 2907, "\u00d9\u0127": 2908, "arr": 2909, "\u0120ver": 2910, "\u0120To": 2911, "Over": 2912, "\u0120solid": 2913, "lip": 2914, "ayment": 2915, "icense": 2916, "\u010d\u010a\u010d\u010a\u0120\u0120\u0120\u0120\u0120\u0120\u0120": 2917, "\u0120btn": 2918, "rypt": 2919, "PY": 2920, "tect": 2921, "''": 2922, "\u00e5\u00bc": 2923, "Property": 2924, "springframework": 2925, "\u0120store": 2926, "\u0120cursor": 2927, ".</": 2928, "family": 2929, "\u00c4\u00b1": 2930, "alance": 2931, "ail": 2932, "cast": 2933, "rate": 2934, "RUN": 2935, "(*": 2936, "ches": 2937, "ao": 2938, "qui": 2939, "CL": 2940, "\u012025": 2941, "inner": 2942, "\"}": 2943, "private": 2944, "\u0120search": 2945, "interface": 2946, "stream": 2947, "\u0120boolean": 2948, "\u0120exec": 2949, "\u00d8\u00a7\u00d9\u0126": 2950, "lap": 2951, "fmt": 2952, "tail": 2953, "\u0120{%": 2954, "Max": 2955, "MENT": 2956, "\u0120man": 2957, "ingle": 2958, "'],": 2959, "\u0120options": 2960, "\u0120./": 2961, "\u0120\",": 2962, "70": 2963, "ination": 2964, "\u0120which": 2965, "\u00d0\u00b5\u00d1\u0122": 2966, "\u0120session": 2967, "\u0120player": 2968, "Http": 2969, "OS": 2970, "mpt": 2971, "Vector": 2972, "\u0120root": 2973, "Listener": 2974, "\u0120False": 2975, "Bar": 2976, "score": 2977, "\u0120render": 2978, "\u0120inte": 2979, "riter": 2980, "\u00e2\u0137": 2981, "ian": 2982, "39": 2983, "train": 2984, "\u0120Mo": 2985, "Vis": 2986, "ATION": 2987, "soft": 2988, "ling": 2989, "VAL": 2990, "\u0120JSON": 2991, "direction": 2992, "leg": 2993, "\u0120updated": 2994, "\u012040": 2995, "aly": 2996, "document": 2997, "Ut": 2998, "alculate": 2999, "\u0120begin": 3000, "less": 3001, "bit": 3002, "room": 3003, "}{": 3004, "Min": 3005, "ECT": 3006, "Run": 3007, "\u0120reg": 3008, "SERT": 3009, "\u012014": 3010, "debug": 3011, "ls": 3012, "MAKE": 3013, "ym": 3014, "ater": 3015, "Files": 3016, "ATA": 3017, "cf": 3018, "androidx": 3019, "Builder": 3020, "sort": 3021, "ten": 3022, "\u0120html": 3023, "\u0120book": 3024, "\u0120package": 3025, "shadow": 3026, "PATH": 3027, "anel": 3028, "black": 3029, "Delete": 3030, "iven": 3031, "irm": 3032, "\u00e0\u00a6": 3033, "\u00e4\u00b8\u0122": 3034, "\u012032": 3035, "uch": 3036, "Fe": 3037, "dient": 3038, "drop": 3039, "Edit": 3040, "ude": 3041, "('/": 3042, "alled": 3043, "python": 3044, "ze": 3045, "selected": 3046, "ules": 3047, "sa": 3048, "\u0120*)": 3049, "ctx": 3050, "Temp": 3051, "teger": 3052, "\u0120\u010a\u0120\u0120\u0120\u0120\u0120\u0120\u0120": 3053, "sql": 3054, "\u0120more": 3055, "untime": 3056, "ffic": 3057, "\u0120'/": 3058, "Te": 3059, "AP": 3060, "vec": 3061, "igin": 3062, "element": 3063, "Output": 3064, "ified": 3065, "\u0120img": 3066, "Fact": 3067, "Hel": 3068, "\u0120Al": 3069, "bers": 3070, "\u0120abs": 3071, "\u0120instance": 3072, "article": 3073, "\u00d9\u012c": 3074, "\u0120component": 3075, "\u00c3\u00b3n": 3076, "sample": 3077, "\u00e6\u0139": 3078, "options": 3079, "\u0120Array": 3080, "Book": 3081, "match": 3082, "\u0120location": 3083, "\u0120init": 3084, "verse": 3085, "inue": 3086, "olution": 3087, "fill": 3088, "}.": 3089, "profile": 3090, "ayload": 3091, "Container": 3092, "IST": 3093, "\u00d8\u00a7\u00d8": 3094, "]:": 3095, "ons": 3096, "alog": 3097, "UB": 3098, "je": 3099, "RL": 3100, "ARY": 3101, "just": 3102, "Enter": 3103, "Storage": 3104, "\u0120EX": 3105, "Params": 3106, "Control": 3107, "adi": 3108, "fit": 3109, "graph": 3110, "application": 3111, "role": 3112, "answ": 3113, "\u0120est": 3114, "\u010a\u0109\u010a": 3115, "itional": 3116, "random": 3117, "inc": 3118, "\u0120ter": 3119, "iginal": 3120, "etc": 3121, "\u0120Par": 3122, "antity": 3123, "\u00e5\u013d": 3124, "\u0120%{": 3125, "fs": 3126, "\u0120selected": 3127, "Search": 3128, "Account": 3129, "gest": 3130, "Items": 3131, "mploy": 3132, "Instance": 3133, "\u0120fil": 3134, "olicy": 3135, "defined": 3136, "area": 3137, "range": 3138, "ottom": 3139, "86": 3140, "95": 3141, "\u0120some": 3142, "namespace": 3143, "ARCHAR": 3144, "Block": 3145, "ther": 3146, "\u0120write": 3147, "\u010a\u0120\u0120\u0120\u0120\u0120\u0120\u0120\u0120\u0120\u0120\u0120\u0120\u0120\u0120": 3148, "\u0120returns": 3149, "Effect": 3150, "only": 3151, "Wh": 3152, "\u00e0\u00a4": 3153, "csv": 3154, "insert": 3155, "\u0120exit": 3156, "normal": 3157, "\u0120HT": 3158, "\u010a\u0120\u0120\u0120\u0120\u0120\u0120\u0120\u0120\u0120\u0120\u0120\u0120\u010a\u0120\u0120\u0120\u0120\u0120\u0120\u0120\u0120\u0120\u0120\u0120": 3159, "\u0120255": 3160, "GS": 3161, "\u0120hover": 3162, "ashboard": 3163, "\u0120del": 3164, "**:": 3165, "ather": 3166, "\u0120except": 3167, "ada": 3168, "Ob": 3169, "\u00e3\u0124\u0134": 3170, "Level": 3171, "arning": 3172, "----------------------------------------------------------------": 3173, "\u0120send": 3174, "\u0120React": 3175, "ailable": 3176, "\u0120req": 3177, "Body": 3178, "\u0120fill": 3179, "raint": 3180, "\u0120INTO": 3181, "\u0120normal": 3182, "Filter": 3183, "DA": 3184, "Empty": 3185, "ould": 3186, "\u0120year": 3187, "stant": 3188, "pack": 3189, "\u00e9\u0129": 3190, "\u00e5\u0129": 3191, "register": 3192, "\u0120step": 3193, "ness": 3194, "\u010d\u010a\u0120\u0120\u0120\u0120": 3195, "hell": 3196, "'>": 3197, "Sign": 3198, "Modal": 3199, ")\"": 3200, "scribe": 3201, "Description": 3202, "\u0120TO": 3203, "Loading": 3204, "fully": 3205, "edit": 3206, "tool": 3207, "ircle": 3208, "AS": 3209, "\u0120\u00e2\u0136": 3210, "actions": 3211, "\u0120word": 3212, "\u0120provide": 3213, "\u0120parse": 3214, "CM": 3215, "ross": 3216, "leep": 3217, "anner": 3218, "utf": 3219, "\u0120opt": 3220, "imum": 3221, "custom": 3222, "yp": 3223, "material": 3224, "\u0120script": 3225, "\u0120service": 3226, "False": 3227, "\\\"": 3228, "metadata": 3229, "Method": 3230, "\u0120ag": 3231, "ful": 3232, "\u0120po": 3233, "\u0120was": 3234, "\u0120placeholder": 3235, "ilt": 3236, "\u0120\u00d0\u00bd": 3237, "bool": 3238, "\u0120pri": 3239, "obj": 3240, "dot": 3241, "03": 3242, "tree": 3243, "\u0120|>": 3244, "dic": 3245, "Init": 3246, "rel": 3247, "Height": 3248, "06": 3249, "<?": 3250, "install": 3251, "struction": 3252, "\u00e3\u0122\u0123": 3253, "ynam": 3254, "\u0120second": 3255, "\u0120Or": 3256, "RC": 3257, "iddle": 3258, "proto": 3259, "\u0120rgba": 3260, "ports": 3261, "\u0120sk": 3262, "\u0120New": 3263, "\u00e5\u00b0": 3264, "\u0120long": 3265, "SION": 3266, "addr": 3267, "\u0120directory": 3268, "\u00ef\u00bc\u013c": 3269, "\u0120super": 3270, "Location": 3271, "\u0120need": 3272, "ube": 3273, "can": 3274, "igger": 3275, "\u0120[[": 3276, ".\",": 3277, "\u0120px": 3278, "sn": 3279, "ideo": 3280, "Format": 3281, "footer": 3282, "xml": 3283, "ros": 3284, "rapper": 3285, "Tag": 3286, "ERR": 3287, "come": 3288, "\u0120vector": 3289, "\u0120random": 3290, "Resource": 3291, "ency": 3292, "\"`": 3293, "Document": 3294, "cmd": 3295, "\u0120\"../": 3296, "\u0120Response": 3297, "PUT": 3298, "\u0120results": 3299, "async": 3300, "Provider": 3301, "\u0120Node": 3302, "\u0120For": 3303, "gt": 3304, "This": 3305, "ah": 3306, "rt": 3307, "rep": 3308, "\u0120Return": 3309, "\u0120IF": 3310, "\u0120es": 3311, "77": 3312, "\u0120cl": 3313, "EL": 3314, "\u0120\u00f0\u0141": 3315, "\u0120df": 3316, "Details": 3317, "hidden": 3318, "\u0120On": 3319, "\u0120Ad": 3320, "velop": 3321, "\u00d0\u00bf": 3322, "ged": 3323, "AM": 3324, "Failed": 3325, "\u00ec\u0139": 3326, "settings": 3327, "\u0120database": 3328, "ialog": 3329, "\u0120onClick": 3330, "tt": 3331, "lice": 3332, "\u0120author": 3333, "\u0120Config": 3334, "lish": 3335, "\u00e6\u0142": 3336, "amera": 3337, "08": 3338, "\u0120but": 3339, "screen": 3340, "\u0120Wh": 3341, "java": 3342, "stack": 3343, "\u0120OR": 3344, "\u0120\u00d0\u00b4": 3345, "DD": 3346, "asic": 3347, "\u0120under": 3348, "\u010d\u010a\u0120\u0120\u0120\u0120\u0120\u0120\u0120\u0120\u0120": 3349, "roke": 3350, "\u0120\"\",": 3351, "aws": 3352, "usr": 3353, "ignment": 3354, "ART": 3355, "\u0120imp": 3356, "parent": 3357, "DATE": 3358, "Call": 3359, "UES": 3360, "coder": 3361, "FO": 3362, "uff": 3363, "copy": 3364, "mm": 3365, "\u00ec\u013f\u00b4": 3366, "Price": 3367, "[[": 3368, "question": 3369, "\u0120users": 3370, "rs": 3371, "\u0120\u0120\u0120\u0120\u0120\u0120\u0120\u0120\u0120\u0120\u0120\u0120\u0120": 3372, "\u0120after": 3373, "pop": 3374, "\u00ec\u0126": 3375, "required": 3376, "\u0120save": 3377, "ict": 3378, "AGE": 3379, "ZE": 3380, "comm": 3381, "shape": 3382, "verage": 3383, "raft": 3384, "\u010a\u0120\u0120\u0120\u0120\u0120\u0120\u0120\u0120\u0120\u0120\u0120\u0120\u0120\u0120\u0120\u0120\u0120\u0120\u0120\u0120\u0120\u0120\u0120\u0120\u0120\u0120\u0120\u0120\u0120\u0120\u0120\u0120\u0120\u0120\u0120\u0120\u0120\u0120\u0120\u0120\u0120\u0120\u0120\u0120\u0120\u0120\u0120\u0120": 3385, ">',": 3386, "\u0120Task": 3387, "SP": 3388, ",'": 3389, "\u0120must": 3390, "\u0120category": 3391, "dition": 3392, "SO": 3393, "If": 3394, ">\",": 3395, "ane": 3396, "\u0120acc": 3397, "abs": 3398, "\u012060": 3399, "Part": 3400, "\u0120level": 3401, "\u0120WHERE": 3402, "signed": 3403, "ocket": 3404, "dp": 3405, "700": 3406, "lower": 3407, "gu": 3408, ".\")": 3409, "FT": 3410, "\u0120follow": 3411, "Stream": 3412, "++;": 3413, "execute": 3414, ":\\": 3415, "empty": 3416, "\u0120rep": 3417, "\u0120frame": 3418, "INSERT": 3419, "'))": 3420, "\u00d0\u00b0\u00d1\u0124": 3421, "annot": 3422, "Record": 3423, "access": 3424, "\u00e5\u013e\u00a8": 3425, "Category": 3426, "\u0120override": 3427, "icons": 3428, "\u00e4\u00bf": 3429, "\u012018": 3430, "\u0120models": 3431, "\u00e6\u0140": 3432, "round": 3433, "ibility": 3434, "answer": 3435, "FROM": 3436, "entifier": 3437, "07": 3438, "otion": 3439, "\u0120allow": 3440, ")),": 3441, "LOG": 3442, "\u0120amount": 3443, "ved": 3444, "agement": 3445, "Length": 3446, "Show": 3447, "ds": 3448, "xs": 3449, "prev": 3450, "ement": 3451, "\u0120elif": 3452, "del": 3453, "68": 3454, "account": 3455, "\u010d\u010a\u0120\u0120\u0120\u0120\u0120\u0120\u0120\u0120\u0120\u0120\u0120\u0120\u0120\u0120\u0120\u0120\u0120\u0120\u0120\u0120\u0120\u0120\u0120": 3456, "\u0120sort": 3457, "reference": 3458, "\u0120account": 3459, "\u00e7\u013d": 3460, "Top": 3461, "\u012011": 3462, "\u0120here": 3463, "summary": 3464, "alys": 3465, "(\"\\": 3466, "\u00e4\u00b8\u00aa": 3467, "OUT": 3468, "\u00ec\u0142": 3469, "attr": 3470, "contact": 3471, "USER": 3472, "65": 3473, "\u00d9\u0128": 3474, "alysis": 3475, "alloc": 3476, "ws": 3477, "\u0120username": 3478, "\u0120scale": 3479, "Schema": 3480, "way": 3481, "wn": 3482, "Weight": 3483, "\u0120Form": 3484, "\u0120vert": 3485, "\u0120Type": 3486, "\u00e5\u012e": 3487, "\u0120white": 3488, "\u0120access": 3489, "\u0120container": 3490, "\u0120torch": 3491, "\u00e6\u012b": 3492, "\u0120mark": 3493, "\u0120Promise": 3494, "ordin": 3495, "submit": 3496, "\u0120Le": 3497, "logo": 3498, "OB": 3499, "(@": 3500, "\u00d0\u00be\u00d0\u00bb": 3501, "entry": 3502, "\u0120UI": 3503, "hel": 3504, "\u0120\u00d0\u00b8": 3505, "Collection": 3506, "au": 3507, "padding": 3508, "results": 3509, "Spec": 3510, "Admin": 3511, "theme": 3512, "difier": 3513, "\u0120500": 3514, "olute": 3515, "000000": 3516, "\u0120\"-": 3517, "VI": 3518, "}\\": 3519, "\u00d0\u00b5\u00d0\u00bc": 3520, "elf": 3521, "Font": 3522, "\u0120\u0120\u0120\u0120\u0120\u0120\u0120\u0120\u0120\u0120\u0120\u0120\u0120\u0120": 3523, "None": 3524, "MM": 3525, "\u0120price": 3526, "\u0120memory": 3527, "Option": 3528, "aded": 3529, "quence": 3530, "ker": 3531, "ggle": 3532, "enario": 3533, "(.": 3534, "------------": 3535, "getElement": 3536, "ctory": 3537, "cipe": 3538, "med": 3539, "Session": 3540, "mbda": 3541, "icrosoft": 3542, "equal": 3543, "98": 3544, "filename": 3545, "rar": 3546, "Json": 3547, "\u0120\u010a\u0120": 3548, "\u00e2\u0138\u012a": 3549, "CMAKE": 3550, "limit": 3551, "\u012080": 3552, "\u0120api": 3553, "quires": 3554, "sure": 3555, "Mapp": 3556, "hash": 3557, "\u0120arr": 3558, "/.": 3559, "TR": 3560, "\u0120\u00c2": 3561, "Login": 3562, "\u0120Value": 3563, "ause": 3564, "fi": 3565, "nt": 3566, "Dto": 3567, "dark": 3568, "Buffer": 3569, "\u0120now": 3570, "\u0120does": 3571, "\u0120He": 3572, "ancel": 3573, "(){": 3574, "Dec": 3575, "na": 3576, "JSON": 3577, "cript": 3578, "irt": 3579, "\u00d0\u00b7": 3580, "Script": 3581, "XX": 3582, "ploy": 3583, "\u0120({": 3584, "lem": 3585, "\u0120role": 3586, "tmp": 3587, "\u00e5\u0128": 3588, "Main": 3589, "\u0120Write": 3590, "COPY": 3591, "\u00e5\u012f": 3592, "\u00e7\u00bd": 3593, "Left": 3594, "CR": 3595, "between": 3596, "\u0120div": 3597, "\u0120'../": 3598, "buf": 3599, "\u00eb\u00a1": 3600, "ways": 3601, "Process": 3602, "fun": 3603, "Down": 3604, "Work": 3605, "Lib": 3606, "vers": 3607, "ixel": 3608, "fl": 3609, "\u00d9\u012a": 3610, "\u0120before": 3611, "amount": 3612, "VERSION": 3613, "transform": 3614, "Child": 3615, "\u0120logger": 3616, "\u0120SE": 3617, "\u0120translate": 3618, "vas": 3619, "\u0120prev": 3620, "\u0120header": 3621, "green": 3622, "\u0120inst": 3623, "\u0120License": 3624, "\u0120limit": 3625, "ffff": 3626, "\u0120Product": 3627, "DATA": 3628, "MS": 3629, "cx": 3630, "\u0120car": 3631, "gres": 3632, "\u0120full": 3633, "Screen": 3634, "Close": 3635, "\u0120Input": 3636, "break": 3637, "Route": 3638, "\u00e8\u00a7": 3639, "\u0120\u00d0\u00be": 3640, "year": 3641, "\u0120No": 3642, "\u0120\u00c3": 3643, "ites": 3644, "points": 3645, "\".": 3646, "\u00e6\u012f": 3647, "Core": 3648, "\u0120Dis": 3649, "\u010d\u010a\u0120\u0120": 3650, "*)": 3651, "\u0120Col": 3652, "'])": 3653, "Dialog": 3654, "offset": 3655, "{{-": 3656, "unch": 3657, "imple": 3658, "nown": 3659, "replace": 3660, "lags": 3661, "lang": 3662, "variable": 3663, ":</": 3664, "\u00e4\u00bc": 3665, "dest": 3666, "ids": 3667, "\u0120Not": 3668, "tributes": 3669, "medium": 3670, "My": 3671, "\u0120Image": 3672, "\u0120generate": 3673, "iler": 3674, "ongo": 3675, "ulti": 3676, "=$": 3677, "\u0120{\"": 3678, "tach": 3679, "\u0120;;": 3680, "FLA": 3681, "\u0120URL": 3682, "\u0120remove": 3683, "\u0120Out": 3684, "\u00ec\u0140": 3685, "\u0120\u00d0\u00ba": 3686, "ision": 3687, "off": 3688, "Connection": 3689, "Back": 3690, "\u0120END": 3691, ":\",": 3692, "\u00e6\u0122": 3693, "aml": 3694, "Profile": 3695, "47": 3696, "rr": 3697, "\u0120md": 3698, "\u0120Use": 3699, "Stack": 3700, "Invalid": 3701, "\u0120login": 3702, "Args": 3703, "pression": 3704, "bash": 3705, "rib": 3706, "LL": 3707, "ted": 3708, "\u0120copy": 3709, "pass": 3710, "PIO": 3711, "services": 3712, "i\u00c3\u00b3n": 3713, "oriz": 3714, "getElementById": 3715, "Cell": 3716, "modal": 3717, "\u0120section": 3718, "\u0120aut": 3719, ")).": 3720, "rowser": 3721, "\u0120State": 3722, "\u0120template": 3723, "\u0120\u00d8\u00a7\u00d9\u0126": 3724, "domain": 3725, "\u0120\"%": 3726, "\u00e5\u00af": 3727, "\u0120Gener": 3728, "\u0120pointer": 3729, "fire": 3730, "rows": 3731, "\u0120VARCHAR": 3732, "Selector": 3733, "cell": 3734, "coding": 3735, "rand": 3736, "stop": 3737, "ru": 3738, "rency": 3739, "\u0120conf": 3740, "ynamic": 3741, "curity": 3742, "CP": 3743, "kens": 3744, "\u0120View": 3745, "%%%%": 3746, "\u00e7\u0132": 3747, "aved": 3748, "\u0120empty": 3749, "ral": 3750, "\u00d8\u00b1": 3751, "\u00e5\u00be": 3752, "errors": 3753, "Right": 3754, "\u010a\u010a\u0109\u0109": 3755, "\u00ea\u00b0": 3756, "\u00e4\u00b9": 3757, "ombre": 3758, "\u0120opacity": 3759, "library": 3760, "erc": 3761, "route": 3762, "libs": 3763, "ram": 3764, "\u0120parent": 3765, "\u00ec\u013c": 3766, "ugh": 3767, "\u010a\u0120\u0120\u0120\u0120\u0120\u0120\u0120\u0120\u0120\u0120\u0120\u0120\u0120\u0120\u0120\u0120\u0120\u0120\u0120\u0120": 3768, "\u0120connection": 3769, "\u0120tri": 3770, "ators": 3771, "\u0120Message": 3772, "Function": 3773, "\u0120PRI": 3774, "AND": 3775, "wt": 3776, "\u0120may": 3777, "Async": 3778, "each": 3779, "ges": 3780, "\u0120resource": 3781, "\u0120As": 3782, "angular": 3783, "One": 3784, ")*": 3785, "49": 3786, "\u00e8\u00a1\u012e": 3787, "\u0120record": 3788, "ef": 3789, "\u0120''": 3790, "SIZE": 3791, "strib": 3792, "INE": 3793, "redential": 3794, "va": 3795, "\u0120Ac": 3796, "Des": 3797, "Port": 3798, "channel": 3799, "\u0120TH": 3800, "\u00e4\u00b8\u012f": 3801, "gine": 3802, "}:": 3803, "CTION": 3804, "\u0120Copy": 3805, "\u00d0\u00b5\u00d1\u0124": 3806, "\u0120Key": 3807, "\u0120example": 3808, "cap": 3809, "\u01201000": 3810, "\u00e4\u00b8\u00ba": 3811, "\u0120Map": 3812, "\u00e5\u00ae\u013c": 3813, "\u0120Sub": 3814, "\u00d0\u00b1": 3815, "\u0120Next": 3816, "\"\"\"\"": 3817, "ategories": 3818, "inary": 3819, "\u0120_,": 3820, "SA": 3821, "\u0120++": 3822, "\u0120focus": 3823, "wner": 3824, "mac": 3825, "\u0120web": 3826, "lash": 3827, "\u0120play": 3828, "\u0120Object": 3829, "85": 3830, "emove": 3831, "\u0120mod": 3832, "nn": 3833, "Radi": 3834, "\u0120Some": 3835, "\u0120custom": 3836, "\u00e6\u0130": 3837, "\u0120info": 3838, "\u0120Time": 3839, "dim": 3840, "\u00e4\u00b8\u0143": 3841, "Values": 3842, "arm": 3843, "Application": 3844, "uri": 3845, "\u0120Result": 3846, "\u0120Exception": 3847, "Router": 3848, "zip": 3849, "\u0120relative": 3850, "\u0120register": 3851, "reset": 3852, "phone": 3853, "keys": 3854, "Tree": 3855, "vm": 3856, "udo": 3857, "\u00d1\u0128": 3858, "\u0120buffer": 3859, "Current": 3860, "Each": 3861, "\u00e2\u0137\u0132": 3862, "names": 3863, "\u0120Rout": 3864, "\u00e6\u013e\u012b": 3865, "\u0120\".": 3866, "\u0120proxy": 3867, "\u0120score": 3868, "\u0120\u010d": 3869, "\u0120VAL": 3870, "}]": 3871, "ica": 3872, "\u00c3\u00a7\u00c3\u00a3o": 3873, "aut": 3874, "PRE": 3875, "pol": 3876, "schema": 3877, "where": 3878, "ior": 3879, "mask": 3880, "\u0120global": 3881, "\u00d1\u0127": 3882, "\u0120AND": 3883, "\u0120'#": 3884, "\u00e1\u0122": 3885, "09": 3886, "QUE": 3887, "\u0120Do": 3888, "ragment": 3889, "\u0120cre": 3890, "__(": 3891, "utter": 3892, ":/": 3893, "nd": 3894, "\u0120successfully": 3895, "uted": 3896, "cols": 3897, "ados": 3898, "\u0120help": 3899, "itude": 3900, "89": 3901, "margin": 3902, "\u0120{:": 3903, "\u0120headers": 3904, "\u0120ge": 3905, "\u0120mt": 3906, "\u0120Us": 3907, "\u0120endif": 3908, "CA": 3909, "=(": 3910, "then": 3911, "PER": 3912, "ido": 3913, "Net": 3914, "\u0120Start": 3915, "\u0120like": 3916, "=${": 3917, "cal": 3918, "{\"": 3919, "lide": 3920, "acy": 3921, "amb": 3922, "\u0120environment": 3923, "\u00e5\u00bd": 3924, ",\"": 3925, "Float": 3926, "uda": 3927, "tected": 3928, "SQL": 3929, "\u0120Event": 3930, "\u0120da": 3931, "ason": 3932, "\u0120setup": 3933, "Author": 3934, "gy": 3935, "comment": 3936, "!!": 3937, "CES": 3938, "Types": 3939, "andard": 3940, "Found": 3941, "\u0120duration": 3942, "bytes": 3943, "\u0120Vector": 3944, "kit": 3945, "eh": 3946, "enable": 3947, "\u00d0\u00b5\u00d0\u00bd\u00d0\u00b8": 3948, "\u0120userId": 3949, "\u0120obj": 3950, "double": 3951, "UID": 3952, "INST": 3953, "\u0120move": 3954, "andid": 3955, "PORT": 3956, "words": 3957, "orizont": 3958, "\u0120rot": 3959, "member": 3960, "\u0120Request": 3961, "\u0120support": 3962, "\u010d\u010a\u010d\u010a\u010d": 3963, "alt": 3964, "LETE": 3965, "#+": 3966, "hook": 3967, "\u00d0\u00be\u00d1\u0122": 3968, "ka": 3969, "docker": 3970, "\u010a\u0120\u0120\u0120\u0120\u0120\u0120\u0120\u0120\u0120\u0120\u0120\u0120\u0120\u0120\u0120\u0120\u0120\u0120\u0120\u0120\u0120\u0120\u0120\u0120\u0120\u0120\u0120\u0120\u0120\u0120\u0120\u0120\u0120\u0120\u0120\u0120\u0120\u0120\u0120\u0120\u0120\u0120\u0120": 3971, "ERROR": 3972, "sem": 3973, "ango": 3974, "Man": 3975, "ales": 3976, "navig": 3977, "modules": 3978, "SD": 3979, "\u0120off": 3980, "\u0120You": 3981, "rm": 3982, "toString": 3983, "ars": 3984, "\"];": 3985, "Debug": 3986, "\u0120println": 3987, "ha": 3988, "ited": 3989, "math": 3990, "\u0120bl": 3991, "ries": 3992, "}\",": 3993, "DER": 3994, "\u00e3\u0125\u00b3": 3995, "\u0120screen": 3996, "hi": 3997, "\u0120Run": 3998, "rec": 3999, "\u0120weight": 4000, "lint": 4001, "docs": 4002, "ruct": 4003, "\u0120Sp": 4004, "....": 4005, "\u0120Math": 4006, "tax": 4007, "\u0120lang": 4008, "TA": 4009, "Play": 4010, "ending": 4011, "Role": 4012, "First": 4013, "\u0120\"@/": 4014, "ital": 4015, "STA": 4016, "Total": 4017, "gle": 4018, "Device": 4019, "zer": 4020, "\u00e7\u0132\u0128": 4021, "GO": 4022, "apply": 4023, "mployee": 4024, "aa": 4025, "\u00e6\u013f": 4026, "\u0120train": 4027, "valu": 4028, "\u0120apply": 4029, "\u0120configuration": 4030, "otlin": 4031, "Attribute": 4032, "\u00e8\u00a6": 4033, "fra": 4034, "\u0120python": 4035, "\u00e6\u00b3": 4036, "Use": 4037, "logic": 4038, "Sec": 4039, "!(\"": 4040, "Ab": 4041, "Next": 4042, "\u0120dec": 4043, "\u0120real": 4044, "\u012019": 4045, "OK": 4046, "42": 4047, "ycle": 4048, "Radius": 4049, "Fore": 4050, "acing": 4051, "cb": 4052, "\u0120sample": 4053, "peat": 4054, "ighlight": 4055, "\u0120absolute": 4056, "\u0120available": 4057, "ensions": 4058, "\u0120des": 4059, "iform": 4060, "Settings": 4061, "cout": 4062, "conn": 4063, "\u0120Http": 4064, "\u010a\u0109\u0109\u0109\u0109\u0109\u0109\u0109": 4065, "PC": 4066, "atient": 4067, "\u0120offset": 4068, "roy": 4069, "uk": 4070, "matrix": 4071, "\u0120dark": 4072, "Active": 4073, "TD": 4074, "AI": 4075, "\u0120clean": 4076, "ourse": 4077, "created": 4078, "LIC": 4079, "ium": 4080, "\u0120pass": 4081, "\u00e4\u00bb\u00b6": 4082, "\u0120And": 4083, "grade": 4084, "olve": 4085, "ressed": 4086, "irtual": 4087, "uments": 4088, "vid": 4089, "ewrite": 4090, "JECT": 4091, "allet": 4092, "TYPE": 4093, "student": 4094, "pped": 4095, "{\\": 4096, "Local": 4097, "\u0120raise": 4098, "Sum": 4099, "\u0120non": 4100, "oper": 4101, "shot": 4102, "dec": 4103, "\u0120rece": 4104, "\u0120endl": 4105, "\u0120parameters": 4106, "dart": 4107, "\u012017": 4108, "Amount": 4109, "\u0120continue": 4110, "\u0120expected": 4111, "rgb": 4112, "\u0120fin": 4113, "BO": 4114, "\u0120met": 4115, "Return": 4116, "\u0120contain": 4117, "dapt": 4118, "Activity": 4119, "\u0120want": 4120, "lasses": 4121, "views": 4122, "\u0120msg": 4123, "))))": 4124, "\u0120errors": 4125, "\u0120\u00e2\u0128": 4126, "\u0120exists": 4127, "\u0120program": 4128, "\u0120reference": 4129, "\u0120information": 4130, "MARY": 4131, "dt": 4132, "record": 4133, "duction": 4134, "rot": 4135, "\u00e5\u0131\u00af": 4136, "Arg": 4137, "prefix": 4138, "strap": 4139, "\u0120!==": 4140, "=\"{{": 4141, "\u0120differ": 4142, "Rule": 4143, "ITE": 4144, "uario": 4145, "chat": 4146, "Props": 4147, "userId": 4148, "\u00e6\u0138\u0129": 4149, "UNT": 4150, "aj": 4151, "\u00d0\u00be\u00d0\u00b4": 4152, "\u0120dest": 4153, "rough": 4154, "win": 4155, "\u0120\u010a\u0120\u0120\u0120\u0120\u0120\u0120\u0120\u0120\u0120\u0120\u0120": 4156, "\u0120assign": 4157, "exists": 4158, "ginx": 4159, "Database": 4160, "resp": 4161, "UTF": 4162, "\u0120Trans": 4163, "widget": 4164, "tip": 4165, "\u0139\u00e3\u0123": 4166, "shared": 4167, "\u00e9\u0139": 4168, "\u0120close": 4169, "\u0120correct": 4170, "Cur": 4171, "\u0120device": 4172, "att": 4173, "\u0120Py": 4174, "DTO": 4175, "ced": 4176, "erm": 4177, "entication": 4178, "lar": 4179, "\u0120Function": 4180, "\u0120option": 4181, "\u0120namespace": 4182, "ula": 4183, "ITY": 4184, "\u0120'',": 4185, "\u00d8\u00af": 4186, "Range": 4187, "\u0120bytes": 4188, "\u0125\u00bd": 4189, "Reg": 4190, "Serial": 4191, "96": 4192, "ours": 4193, "isma": 4194, "Go": 4195, "odo": 4196, "pdf": 4197, "orizontal": 4198, "\u00eb\u00a1\u013e": 4199, "\u0120construct": 4200, "avax": 4201, "\u0120(*": 4202, "clear": 4203, "\u0120language": 4204, "\u0120Button": 4205, "\u010a\u0120\u0120\u0120\u0120\u0120\u0120\u0120\u0120\u0120\u0120\u0120\u0120\u0120\u0120\u0120\u0120\u0120\u0120\u0120\u0120\u0120\u0120\u0120\u0120\u0120\u0120\u0120\u0120\u0120": 4206, "@@": 4207, "ability": 4208, "\u0120---": 4209, "\u0120entry": 4210, "imate": 4211, "ARD": 4212, "job": 4213, "\u0120tab": 4214, "/${": 4215, "mk": 4216, "\u0120SET": 4217, "enum": 4218, "expected": 4219, "Ass": 4220, "Op": 4221, "lif": 4222, "fields": 4223, "Success": 4224, "manager": 4225, "bor": 4226, "\u0120..": 4227, "hedule": 4228, "undle": 4229, "free": 4230, "Exp": 4231, "\u0120enum": 4232, "MAX": 4233, "\u0120*/}": 4234, "\u0120VALUES": 4235, "\u0120card": 4236, "\u0120plt": 4237, "xx": 4238, ">();": 4239, "\u0120{/*": 4240, "\u0120\u00e2\u0122": 4241, "800": 4242, "term": 4243, "EE": 4244, "Hash": 4245, "ura": 4246, "Factory": 4247, "\u0120active": 4248, "![": 4249, "cart": 4250, "jango": 4251, "\u0120Ass": 4252, "Section": 4253, "rf": 4254, "queue": 4255, "release": 4256, "\u0120DateTime": 4257, "\u0120MA": 4258, "\u0120Ro": 4259, "123": 4260, "Unit": 4261, "(\"%": 4262, "\u00e7\u00ae": 4263, "\u0120shadow": 4264, "\u010a\u010a\u010a\u0120\u0120\u0120": 4265, "\u00eb\u012c": 4266, "Root": 4267, "Null": 4268, "\u00d0\u00b8\u00d1\u0124": 4269, ">=": 4270, "ords": 4271, "WORK": 4272, "ants": 4273, "logger": 4274, "\u0120Main": 4275, "used": 4276, "found": 4277, "stylesheet": 4278, "\u0120switch": 4279, "\u0120given": 4280, "\u0120My": 4281, "_,": 4282, "\u012013": 4283, "byte": 4284, "mar": 4285, "lines": 4286, "Package": 4287, "\u00e8\u00be": 4288, "OP": 4289, "ired": 4290, "\u0120??": 4291, "~~~~": 4292, "alf": 4293, "ENV": 4294, "heme": 4295, "\u0120student": 4296, "\u00e5\u012a\u0128": 4297, "\u0120overflow": 4298, "lambda": 4299, "\u0120desc": 4300, ")=": 4301, "imul": 4302, "\u00e2\u0137\u0132\u00e2\u0137\u0132": 4303, "Access": 4304, "\u00d0\u00bd\u00d1\u012d": 4305, "\u0120about": 4306, "\u0120Mat": 4307, "\u0120put": 4308, "\u0120#{": 4309, "\u0120export": 4310, "\u0120admin": 4311, "uuid": 4312, "\u0120Ok": 4313, "\u0120Loc": 4314, "NG": 4315, "\u00eb\u00a5": 4316, "\u00e7\u00bd\u00ae": 4317, "initial": 4318, "FLAGS": 4319, "\u0109\u0109\u0109": 4320, "\u00e6\u012a\u0132": 4321, "\u0120pe": 4322, "sta": 4323, "DF": 4324, "\u0120person": 4325, "features": 4326, "loor": 4327, "inding": 4328, "\u0120connect": 4329, "\u0120400": 4330, "\u0120(`": 4331, "\u00e3\u0123\u013b": 4332, "fd": 4333, "Match": 4334, "ront": 4335, "ftware": 4336, "\u0120<%=": 4337, "details": 4338, "video": 4339, "yy": 4340, "\u0120Ed": 4341, "patch": 4342, "ric": 4343, "\u0120fore": 4344, "\u0120Te": 4345, "ranch": 4346, "Override": 4347, "\u0120Act": 4348, "\u0120based": 4349, ":(": 4350, "icket": 4351, "\u00e2\u0124": 4352, "syn": 4353, ">)": 4354, "gor": 4355, "\u00eb\u012d\u00a4": 4356, "clean": 4357, "cour": 4358, "ograph": 4359, ";;;;": 4360, "WS": 4361, "\u0120than": 4362, "updated": 4363, "counter": 4364, "unwrap": 4365, "\u0120loop": 4366, "thread": 4367, "alpha": 4368, "clk": 4369, "________": 4370, "\u00e6\u0136": 4371, "FER": 4372, "\u0120ease": 4373, "\u00d0\u00bb\u00d1\u0131": 4374, "\u0120Co": 4375, "report": 4376, "ived": 4377, "00000000": 4378, "uture": 4379, "bb": 4380, "anc": 4381, "stract": 4382, "...\"": 4383, "ga": 4384, "\u010a\u010a\u0120\u0120\u0120\u0120\u0120\u0120\u0120\u0120\u0120\u0120\u0120\u0120\u0120\u0120\u0120\u0120\u0120\u0120\u0120": 4385, "\u0120Open": 4386, "\u010d\u010a\u0109\u0109\u0109": 4387, "sec": 4388, "\u0134\u012e": 4389, "los": 4390, "quare": 4391, "\u00e3\u0124\u012d": 4392, "FIG": 4393, "alle": 4394, "\u0120undefined": 4395, "ern": 4396, "cloud": 4397, "\u00e5\u00b8": 4398, "velopment": 4399, "\u010a\u010a\u0120\u0120\u0120\u0120\u0120\u0120\u0120\u0120\u0120": 4400, "\u0120cons": 4401, "\u0120fi": 4402, "Head": 4403, "craft": 4404, "FOR": 4405, "\u0120insert": 4406, "\u0120settings": 4407, "\u0120integer": 4408, "ullable": 4409, "gex": 4410, "ince": 4411, "\u0120ap": 4412, "\u0120same": 4413, "Submit": 4414, "letion": 4415, "URE": 4416, "\u0120Project": 4417, "Vert": 4418, "thing": 4419, "ctionary": 4420, "\u0120our": 4421, "Env": 4422, "\u00b8\u00b0": 4423, "dependencies": 4424, "ja": 4425, "\u0120cho": 4426, ":',": 4427, "ico": 4428, "\u0120failed": 4429, "ueue": 4430, "\u00e6\u012e": 4431, "collection": 4432, "\u0120cell": 4433, "===": 4434, "Integer": 4435, "zy": 4436, "\u0120multip": 4437, "\u00e5\u0131\u0138": 4438, "\u0120ctx": 4439, "scroll": 4440, "54": 4441, "\u00e7\u012b": 4442, "\u00d1\u012a": 4443, "\u0120between": 4444, "metr": 4445, "QU": 4446, "\u00e4\u00bb\u00a5": 4447, "HTML": 4448, "columns": 4449, "gp": 4450, "\u010d\u010a\u010d\u010a\u0120": 4451, "\u00ec\u00a7": 4452, "\u0120pl": 4453, "rea": 4454, "cret": 4455, "\"{": 4456, "\u0120timestamp": 4457, "\u00e6\u0139\u00b6": 4458, "sur": 4459, "\u0120Game": 4460, "_{": 4461, "regist": 4462, "\u0120Default": 4463, "\u0120see": 4464, "setup": 4465, "\u0120BY": 4466, "<%": 4467, "\u00e9\u013b": 4468, "\u0120fields": 4469, "97": 4470, "ando": 4471, "={()": 4472, "Platform": 4473, "cover": 4474, "Home": 4475, "PS": 4476, "pose": 4477, "uit": 4478, "\u00e5\u00b9": 4479, "\u00e5\u0122": 4480, "Template": 4481, "\u00d8\u00aa": 4482, "tags": 4483, "impl": 4484, "\u0120stroke": 4485, "\u0120ret": 4486, "OST": 4487, "ament": 4488, "\u00d0\u00bb\u00d0\u00b8": 4489, "\"));": 4490, "reshold": 4491, "\u0120enable": 4492, "ONE": 4493, "redentials": 4494, "CS": 4495, "\u0120specific": 4496, "Grid": 4497, "Exec": 4498, "cel": 4499, "Space": 4500, "wd": 4501, "EventListener": 4502, "mock": 4503, "Last": 4504, "\u0120children": 4505, "\u0120following": 4506, "\u00e6\u0143": 4507, "\u00e2\u0136\u0122\u00e2\u0136\u0122\u00e2\u0136\u0122\u00e2\u0136\u0122\u00e2\u0136\u0122\u00e2\u0136\u0122\u00e2\u0136\u0122\u00e2\u0136\u0122": 4508, "cm": 4509, "loading": 4510, "contains": 4511, "Theme": 4512, "\u0120Model": 4513, "\u00ed\u0137\u013a": 4514, "testing": 4515, "jo": 4516, "LIB": 4517, "bra": 4518, "\u0120It": 4519, "\u0120Tra": 4520, "\u0120already": 4521, "crypt": 4522, "batch": 4523, "\u0120fmt": 4524, "\u0120Valid": 4525, "\u0120PRIMARY": 4526, "\u0120io": 4527, "dom": 4528, "\u0120matrix": 4529, "\u0120host": 4530, "\u0120pd": 4531, "connection": 4532, "PH": 4533, "Windows": 4534, "\u0120ss": 4535, "uple": 4536, "foreground": 4537, ")\",": 4538, "fetch": 4539, "\u0120#[": 4540, "\u0120there": 4541, "Obj": 4542, "\u0120[];": 4543, "\u0120Tree": 4544, "avigate": 4545, "inte": 4546, "render": 4547, "\u00e3\u0123\u00ab": 4548, "\u00e8\u00b4": 4549, "ivo": 4550, "atar": 4551, "\u0120variables": 4552, "PIN": 4553, "\u0120storage": 4554, "\u00e7\u00a7": 4555, "Normal": 4556, "\u00d1\u0130": 4557, "\u0120Initial": 4558, "desc": 4559, "\u0120network": 4560, "\u0120fo": 4561, "\u0120clear": 4562, "\u0120Id": 4563, "GB": 4564, "upload": 4565, "87": 4566, "1000": 4567, "pad": 4568, "CHE": 4569, "43": 4570, "\u00e9\u00a2": 4571, "SY": 4572, "atio": 4573, "ategor": 4574, "\u0120cache": 4575, "network": 4576, ">{": 4577, "\u00e6\u012f\u00ae": 4578, "Background": 4579, "\u0120doc": 4580, "vh": 4581, "\u0120et": 4582, "ority": 4583, "\u0120don": 4584, "coration": 4585, "Matrix": 4586, "IGN": 4587, "non": 4588, "\u0120)}": 4589, "stats": 4590, "Param": 4591, "Light": 4592, "important": 4593, "fg": 4594, "\u0120tx": 4595, "\u00e5\u0134\u012e": 4596, "vs": 4597, "Pri": 4598, "\u0120their": 4599, "\u00c3\u00bc": 4600, "\u0120[],": 4601, "ansparent": 4602, "mun": 4603, "\u00e0\u00b4": 4604, "site": 4605, "\u012a\u013a": 4606, "\u0120light": 4607, "Oper": 4608, "\u0120filename": 4609, "\u0120Number": 4610, "rad": 4611, "Mon": 4612, "\u0120idx": 4613, "Texture": 4614, "\u0120}}</": 4615, "tools": 4616, "database": 4617, "\u00e0\u00b9": 4618, "ous": 4619, "serial": 4620, "timestamp": 4621, "\u0120pk": 4622, "wise": 4623, "\u010a\u0120\u0120\u0120\u0120\u0120\u0120\u010a\u0120\u0120\u0120\u0120\u0120": 4624, "expr": 4625, "\u0120reset": 4626, "ipel": 4627, "ala": 4628, "Ext": 4629, "\u010d\u010a\u0120\u0120\u0120\u0120\u0120\u0120\u0120\u0120": 4630, "toggle": 4631, "\u0120Build": 4632, "seq": 4633, "licit": 4634, "iness": 4635, "\u0120job": 4636, "\u0120two": 4637, "\u0120Auth": 4638, "\u0120NS": 4639, "Pin": 4640, "\u0120dim": 4641, "\u00e5\u0127\u00a5": 4642, "\u0120gu": 4643, "gment": 4644, "\u0120conn": 4645, "tex": 4646, "Car": 4647, "46": 4648, "uestion": 4649, "\u0120useEffect": 4650, "MIN": 4651, "Rect": 4652, "\u0120its": 4653, "\u0120PRO": 4654, "]),": 4655, "\u00e8\u00a6\u0123": 4656, "\u0120resp": 4657, "\u0120IS": 4658, "2025": 4659, "ternal": 4660, "\u00d0\u00b9": 4661, "ssue": 4662, "\u0120ind": 4663, ">;": 4664, "plan": 4665, "\u0120details": 4666, "\u0120All": 4667, "ana": 4668, "\u0120stop": 4669, "feature": 4670, "\u0120Go": 4671, "\u0120Web": 4672, "colors": 4673, "ysql": 4674, "cert": 4675, "ADD": 4676, "Ax": 4677, "\u00ec\u012c": 4678, "acion": 4679, "Po": 4680, "trim": 4681, "long": 4682, "\u0120old": 4683, "fff": 4684, "distance": 4685, "language": 4686, "Draw": 4687, "console": 4688, "\u0120define": 4689, ";&": 4690, "RES": 4691, "\u0120'@/": 4692, "person": 4693, "Selected": 4694, "Val": 4695, "EGIN": 4696, "\u0120thread": 4697, "small": 4698, "vw": 4699, "()->": 4700, "exit": 4701, "obile": 4702, "allow": 4703, "umb": 4704, "\u00e3\u0125\u012a": 4705, "while": 4706, "Load": 4707, "NOT": 4708, "annotation": 4709, "hy": 4710, "Widget": 4711, "loss": 4712, "Interface": 4713, "ACK": 4714, "------------------------------------------------": 4715, "\u0120menu": 4716, "cons": 4717, "\u0120logging": 4718, "customer": 4719, "exe": 4720, "\u0120onChange": 4721, "nvim": 4722, "Thread": 4723, "after": 4724, "gnore": 4725, "\u0120day": 4726, "oci": 4727, "cores": 4728, "REG": 4729, "'}": 4730, "Panel": 4731, "Logger": 4732, "Struct": 4733, "\u0120\")": 4734, "backend": 4735, "\u0120control": 4736, "\u0120variant": 4737, "*.": 4738, "\u00d1\u0122\u00d0\u00b0\u00d0": 4739, "Di": 4740, "\u0120aria": 4741, "\u0120bottom": 4742, "isk": 4743, "ILD": 4744, "\u0120click": 4745, "\u0120hand": 4746, "ocial": 4747, "Av": 4748, "\u0120tests": 4749, "\u0120gl": 4750, "Support": 4751, "\u00e6\u0138\u00b9": 4752, "\u00e4\u00bd\u013e": 4753, "\u0120debug": 4754, "\u0120fact": 4755, "\u010a\u0120\u0120\u0120\u0120\u0120\u0120\u0120\u0120\u0120\u0120\u0120\u0120\u0120\u0120\u0120\u0120\u0120\u0120": 4756, "\u0120constructor": 4757, "900": 4758, "\u0120pop": 4759, "irc": 4760, "\u0120\u00e8": 4761, "\u0120\"../../": 4762, "\u0120Page": 4763, "\u00e3\u0124\u00b9": 4764, "\u0120signal": 4765, "ISTS": 4766, "Ne": 4767, "plugins": 4768, "unds": 4769, "\u0120original": 4770, "\u0120Met": 4771, "ernal": 4772, "pair": 4773, "endl": 4774, "should": 4775, "\u0120Dep": 4776, "ung": 4777, "=$(": 4778, "\u0120serial": 4779, "\u0120entity": 4780, "acc": 4781, "\u0120router": 4782, "ILE": 4783, "\u0120))": 4784, "iddleware": 4785, "\u0120Per": 4786, "\u0120Console": 4787, "mean": 4788, "\u0120modif": 4789, "\u00e8\u00a1\u00a8": 4790, "itive": 4791, "\u0120\u00d1\u0124": 4792, "Offset": 4793, "Bl": 4794, "navbar": 4795, "\u00ec\u012d": 4796, "za": 4797, "{}": 4798, "\u0120ke": 4799, "ird": 4800, "aster": 4801, "\u0120month": 4802, "\u00e7\u00b1": 4803, "Global": 4804, "platform": 4805, "128": 4806, "gl": 4807, "\u00eb\u00a6": 4808, "perience": 4809, "junit": 4810, "await": 4811, "\u0120mon": 4812, "coded": 4813, "56": 4814, "\u0120property": 4815, "\u0120\u00ce": 4816, "storage": 4817, "\u0120}}\"": 4818, "laim": 4819, "\u0120COL": 4820, ".,": 4821, "READ": 4822, "\u00e5\u00b7": 4823, "\u0120Token": 4824, "\u0120varchar": 4825, "pkg": 4826, "Enum": 4827, "#[": 4828, "iff": 4829, "ercise": 4830, "COM": 4831, "%,": 4832, "gent": 4833, "\u0120\u00d0\u00b7": 4834, "\u00eb\u012c\u0136": 4835, "\u0120channel": 4836, "\u00e2\u0138\u012a\u00e2\u0138\u012a": 4837, "bf": 4838, "\u0120track": 4839, ".\");": 4840, "AC": 4841, "\u010a\u010a\u0120\u0120": 4842, "crement": 4843, "\u00e9\u00a1": 4844, "COL": 4845, "ventory": 4846, "\u00e3\u0123\u0139\u00e3\u0123": 4847, "TIME": 4848, "sys": 4849, "\u0120HTTP": 4850, "\u0120defined": 4851, "driver": 4852, "hav": 4853, "adge": 4854, "\u0120existing": 4855, ".\\": 4856, "ALTER": 4857, "activ": 4858, "\u0120mock": 4859, "\u0120tree": 4860, "\u0120draw": 4861, "agent": 4862, "icker": 4863, "bd": 4864, "uv": 4865, "\u0120eq": 4866, "events": 4867, "avigation": 4868, "tw": 4869, "\u00ef\u00bc\u012b": 4870, "\u0120\u00ec\u013f": 4871, "^^": 4872, ")(": 4873, "ategy": 4874, "SRC": 4875, "\u00e7\u0130": 4876, "gradient": 4877, "\u0120logic": 4878, "final": 4879, "\u0120Base": 4880, "\u0120redirect": 4881, "001": 4882, "\u0120javax": 4883, "products": 4884, "vue": 4885, "Dist": 4886, "ipe": 4887, "Score": 4888, "\u0120Serial": 4889, "\u0120Then": 4890, "\u00e2\u0122\u013b": 4891, "gorith": 4892, "\u0120Option": 4893, "\u00ef\u00bc\u012a": 4894, "missions": 4895, "\u0120free": 4896, "\u0120Inter": 4897, "Find": 4898, "Detail": 4899, "\u00d1\u0126": 4900, "utor": 4901, "andidate": 4902, "\u0120\u00c4": 4903, "Sw": 4904, "\u0120graph": 4905, "Alignment": 4906, "front": 4907, "Display": 4908, "master": 4909, "tasks": 4910, "\u00ec\u0139\u0132": 4911, "\u00bb\u00bf": 4912, "\u00e6\u0138\u00b0": 4913, "\u0120plot": 4914, ";\">": 4915, "\u0120pattern": 4916, "\u0120vim": 4917, "\u00e5\u012a\u00b0": 4918, "ibold": 4919, "\u0120Returns": 4920, "OW": 4921, "\u0120answer": 4922, "gh": 4923, "\u00f0\u013f": 4924, "security": 4925, "download": 4926, "Parameter": 4927, "solid": 4928, "\u0120wire": 4929, "\u0120bit": 4930, "\u0120dist": 4931, "ves": 4932, "\u0120Post": 4933, "diff": 4934, "\u00ef\u00bb\u00bf": 4935, "\u00d8\u00a9": 4936, "\u0120distrib": 4937, "\u0120sizeof": 4938, "\u0120\u00e2\u0128\u0134": 4939, "ational": 4940, "locity": 4941, "pattern": 4942, "encode": 4943, "comple": 4944, "\u0120tags": 4945, "\u0120room": 4946, "pag": 4947, "Rewrite": 4948, "Ver": 4949, "Render": 4950, "\u0120volume": 4951, "\u0120stack": 4952, "\u00a6\u0124": 4953, "\u00ea\u00b3": 4954, "\u00e4\u00bd\u00bf": 4955, "\u0120\";": 4956, "RT": 4957, "\u00e8\u0125\u00bd": 4958, "\u0120batch": 4959, "58": 4960, "iver": 4961, ")+": 4962, "\u012021": 4963, "You": 4964, "unique": 4965, "commit": 4966, "'.": 4967, "Tab": 4968, "finition": 4969, "\u0120Path": 4970, "navigation": 4971, "\u0120By": 4972, "chor": 4973, "\u0120Ver": 4974, "59": 4975, "extra": 4976, "semibold": 4977, "\u0120loc": 4978, "ship": 4979, "\u00e3\u0124\u00a4": 4980, "\u0120\");": 4981, ",-": 4982, "\u0120convert": 4983, "Register": 4984, "\u0120collection": 4985, "\u0120iter": 4986, "\u0120TEXT": 4987, "igration": 4988, "Enable": 4989, "\u0120messages": 4990, "\u00ec\u013f\u0126": 4991, "\u0120$_": 4992, "PL": 4993, "stat": 4994, "Entry": 4995, "`.": 4996, "\":\"": 4997, "outline": 4998, "\u00e7\u00b1\u00bb": 4999, "objects": 5000, "bootstrap": 5001, "lev": 5002, "\u0120stream": 5003, "cursor": 5004, "qrt": 5005, "\u0120cmd": 5006, "arrow": 5007, "Configuration": 5008, "////////////////////////////////": 5009, "\u0120ip": 5010, "\u0120```": 5011, "\u0120character": 5012, "super": 5013, "]+": 5014, "Cart": 5015, "\u0120datetime": 5016, "FFFF": 5017, "#!": 5018, "Engine": 5019, "57": 5020, "\u0120git": 5021, "\u0120Is": 5022, "swing": 5023, "GN": 5024, "\u0120rec": 5025, "directory": 5026, "Full": 5027, "month": 5028, "atal": 5029, "utable": 5030, "\u0120points": 5031, "101": 5032, "\u0120Order": 5033, "ehicle": 5034, "\u0120been": 5035, "\u0120\u00ec\u0142": 5036, "Btn": 5037, "ond": 5038, "orders": 5039, "addEventListener": 5040, "forEach": 5041, "blem": 5042, "/\"": 5043, "Custom": 5044, "when": 5045, "}-": 5046, "Transaction": 5047, "\u0120hash": 5048, "\u0120}),": 5049, "\u0120distance": 5050, "\u0120apt": 5051, "\u0120?>": 5052, "\u0120also": 5053, "CD": 5054, "requ": 5055, "\u00d0\u00ba\u00d0\u00b0": 5056, "\u0120{'": 5057, "MB": 5058, "Contact": 5059, "\u0120comment": 5060, "\u0120how": 5061, "\u0120hidden": 5062, "Enabled": 5063, "\u0120att": 5064, "\u0120EXISTS": 5065, "\u00e5\u012c\u0142": 5066, "socket": 5067, "\u00e6\u0140\u013e": 5068, "Imp": 5069, "\u0120'\\": 5070, "strip": 5071, "\u0120append": 5072, "builder": 5073, "\u00bf\u00bd": 5074, "\u0120features": 5075, "\u0120\u00ec\u0140": 5076, "\u0120300": 5077, "ragma": 5078, "chain": 5079, "\u0120Qu": 5080, "ellow": 5081, ".\"\"\"": 5082, "?;": 5083, "RED": 5084, "bat": 5085, "itter": 5086, "\u0120%>%": 5087, "Plugin": 5088, "semb": 5089, "\u0120ho": 5090, "repository": 5091, "generate": 5092, "\u00e9\u013f": 5093, "Utils": 5094, "edback": 5095, "\u00e4\u00be": 5096, "rece": 5097, "inline": 5098, "\u010a\u0109\u0109\u010a\u0109": 5099, "ography": 5100, "real": 5101, "Timeout": 5102, "eeded": 5103, "\u0120actual": 5104, "grad": 5105, "messages": 5106, "STAMP": 5107, "\u0120edit": 5108, "\u0120su": 5109, "ba": 5110, "includes": 5111, "Rate": 5112, "href": 5113, "deg": 5114, "`)": 5115, "\u0120rows": 5116, "\u00e8\u00bd": 5117, "zz": 5118, "relation": 5119, "bsite": 5120, "`;": 5121, "\u0120push": 5122, "NULL": 5123, "PU": 5124, "fix": 5125, "cos": 5126, "\u0120types": 5127, "izing": 5128, "\u0120disp": 5129, "querySelector": 5130, "\u0120wait": 5131, "Reference": 5132, "support": 5133, "/$": 5134, "asure": 5135, "axis": 5136, "\u0120look": 5137, "\u0120Created": 5138, "Room": 5139, "\u010d\u010a\u0120\u0120\u0120\u0120\u010d\u010a\u0120\u0120\u0120": 5140, "mob": 5141, "iod": 5142, "SOUR": 5143, "bus": 5144, "pages": 5145, "\u0120docker": 5146, "41": 5147, "(\\": 5148, "dataset": 5149, "\u00e5\u012b": 5150, "pin": 5151, "MODE": 5152, "duration": 5153, "Handle": 5154, "\u0120(:": 5155, "force": 5156, "\u0120profile": 5157, "\u0120Table": 5158, "\u0120gen": 5159, "\u0120parameter": 5160, "DU": 5161, "Queue": 5162, "alk": 5163, "\u0120inv": 5164, "ARGET": 5165, "\u0120mer": 5166, "Func": 5167, "\u0120alert": 5168, "safe": 5169, "FEREN": 5170, "YY": 5171, "\u0120Link": 5172, "\u0120lines": 5173, "history": 5174, "embed": 5175, "\u00ef\u00bf\u00bd": 5176, "Directory": 5177, "IF": 5178, "npm": 5179, "props": 5180, "2023": 5181, "Conf": 5182, "\u0120Boolean": 5183, "\u0120'';": 5184, "\u0120provided": 5185, "Mark": 5186, "luster": 5187, "\u0120CH": 5188, "\u0120without": 5189, "icip": 5190, "\u0120unit": 5191, "formance": 5192, "\u01202024": 5193, "Services": 5194, "tests": 5195, "help": 5196, "\u00e5\u0129\u00ba": 5197, "\u0120sur": 5198, "\u0120\u00e2\u0136\u0124": 5199, "\u00d0\u00be\u00d0\u00bc": 5200, "Drop": 5201, "\u0120UN": 5202, "AAAA": 5203, "\u00eb\u00a5\u00bc": 5204, "ora": 5205, "\u0120condition": 5206, "\u0120gra": 5207, "dapter": 5208, "\u0120cart": 5209, "PTION": 5210, "circle": 5211, "\u0120unique": 5212, "\u0120Example": 5213, "blank": 5214, "ersist": 5215, "Graph": 5216, "\u0120Login": 5217, "irth": 5218, "ident": 5219, "ives": 5220, "before": 5221, "symbol": 5222, "\u0120net": 5223, "\u0120\u00c2\u0142": 5224, "\u00e3\u0125\u00ab": 5225, "1111": 5226, "Variable": 5227, "\u00ec\u013f\u013a": 5228, "#{": 5229, "origin": 5230, "\u0120parser": 5231, "<!--": 5232, "\u0120Install": 5233, "Nav": 5234, "equ": 5235, "ctions": 5236, "\u0120dir": 5237, "acters": 5238, "ACT": 5239, "Save": 5240, "HTTP": 5241, "RENT": 5242, "INSTALL": 5243, "\u0120them": 5244, "emon": 5245, "'].": 5246, "eric": 5247, "\u010d\u010a\u010d\u010a\u0120\u0120\u0120\u0120\u0120\u0120\u0120\u0120\u0120\u0120\u0120": 5248, "headers": 5249, "ama": 5250, "\u00e8\u0122": 5251, "dr": 5252, "\u0120direction": 5253, "clone": 5254, "ocker": 5255, "\u0120TR": 5256, "\u0120shape": 5257, "ampler": 5258, "inst": 5259, "Msg": 5260, "\u0120cover": 5261, "Mov": 5262, "\u0120\u00ea\u00b0": 5263, "\u0120',": 5264, "\u0120'../../": 5265, "VC": 5266, "\u00e6\u0137\u00b0\u00e6\u012f\u00ae": 5267, "#!/": 5268, "handler": 5269, "sender": 5270, "\u00e5\u00bf": 5271, "\u0120every": 5272, "\u0120lg": 5273, "=[": 5274, "NUM": 5275, "\u0120ADD": 5276, "\u00e7\u00ba": 5277, "logs": 5278, "bose": 5279, "\u00e7\u00a4": 5280, "\u0120report": 5281, "\u0120images": 5282, "\u00e4\u00ba\u0128": 5283, "\u0120\u00d0\u00bf\u00d1\u0122": 5284, "ipeline": 5285, "\u0141\u00a5": 5286, "idade": 5287, "track": 5288, "*(": 5289, "anization": 5290, "\u0120Des": 5291, "stmt": 5292, "inition": 5293, "\u0120home": 5294, "agn": 5295, "\u0120contains": 5296, "LS": 5297, "\u0120`${": 5298, "vc": 5299, "ccur": 5300, "Tok": 5301, "logy": 5302, "Second": 5303, "Only": 5304, "activity": 5305, "switch": 5306, "controller": 5307, "\u0120phone": 5308, "\u010a\u0109\u0120\u0120\u0120": 5309, "ORE": 5310, "\u0120\\\"": 5311, "repo": 5312, "folder": 5313, "\u0120through": 5314, "\u0120End": 5315, "issing": 5316, "share": 5317, "Cor": 5318, "hr": 5319, "labels": 5320, "note": 5321, "\u0120sql": 5322, "cmake": 5323, "usic": 5324, "\u0120AL": 5325, "oremap": 5326, "ador": 5327, "\u0120solution": 5328, "\u0120metadata": 5329, "uring": 5330, "\u012023": 5331, "internal": 5332, "\u0120downto": 5333, "\u0120writ": 5334, "\u00e7\u0124": 5335, "\u0120Optional": 5336, "\u00c3\u00aa": 5337, "attribute": 5338, "\u0120Card": 5339, "Names": 5340, "cha": 5341, "\u0120done": 5342, "erature": 5343, "delay": 5344, "inate": 5345, "loop": 5346, "\u0120fontSize": 5347, "}`);": 5348, "Mock": 5349, "uniform": 5350, "assign": 5351, "\u0120dependencies": 5352, ">&": 5353, "\u0120Colors": 5354, "\u0120When": 5355, "\u0120TODO": 5356, "\u0120theme": 5357, "ended": 5358, "endar": 5359, "Notification": 5360, "urity": 5361, "\u0120Self": 5362, "STRA": 5363, "\u00e3\u0123\u0126": 5364, "che": 5365, "}'": 5366, "avai": 5367, "Models": 5368, "\u00e5\u00b1": 5369, "short": 5370, "\u0120Sto": 5371, "latest": 5372, "voice": 5373, "Release": 5374, "MAT": 5375, "\u0120calculate": 5376, "jet": 5377, "\u0120optional": 5378, "tokens": 5379, "\u0120arch": 5380, ">.": 5381, "\u00d0\u00bd\u00d0\u00be": 5382, "\u0120plugin": 5383, "decoration": 5384, "\u00ea\u00b8\u00b0": 5385, "region": 5386, "Student": 5387, "\u00e5\u00bc\u0131": 5388, "=\"$": 5389, "\u00d0\u00bb\u00d1\u012e": 5390, "\u0120elements": 5391, "known": 5392, "\u0120Pre": 5393, "DateTime": 5394, "\u0120enter": 5395, "\u0120cv": 5396, "Visible": 5397, "eting": 5398, "tk": 5399, "\u0120regist": 5400, "\u0120\"\")": 5401, "zero": 5402, "\u0120cap": 5403, "\u012022": 5404, ".$": 5405, "wrapper": 5406, "rome": 5407, "NE": 5408, "delta": 5409, "\u0120dot": 5410, "Lower": 5411, "\u0120dev": 5412, "\u0120##": 5413, "\u0120\u00d0\u00bc": 5414, "minal": 5415, "%{_": 5416, "\u0120customer": 5417, "LOC": 5418, "structor": 5419, "cfg": 5420, "eval": 5421, "\u0120Book": 5422, "flu": 5423, "\u0120DO": 5424, "prod": 5425, "\u0120Delete": 5426, "\u00e3\u0123\u00a7": 5427, "\u0120Read": 5428, "\u0120functions": 5429, "DS": 5430, "\u00ea\u00b0\u0122": 5431, "\u0120Version": 5432, "\u00ef\u00b8": 5433, "\u0120FOR": 5434, "FERENCES": 5435, "ither": 5436, "Send": 5437, "\u0120CA": 5438, "Reader": 5439, "\u0120replace": 5440, "speed": 5441, "izes": 5442, "\u0120Python": 5443, "Ho": 5444, "\u0120running": 5445, "\u0120DB": 5446, "Art": 5447, "Println": 5448, "rule": 5449, "\u00e6\u00b5": 5450, "QUEST": 5451, "\u0120Code": 5452, "des": 5453, "umpy": 5454, "Lim": 5455, "Program": 5456, "\u0120validate": 5457, "urch": 5458, "\u0120\\\\": 5459, "\u00e5\u012e\u0138": 5460, "health": 5461, "\u0120\"\";": 5462, "ometry": 5463, "\u0120structure": 5464, "\u00e5\u0140": 5465, "atom": 5466, "[@": 5467, "sim": 5468, "Fo": 5469, "Require": 5470, "UTO": 5471, "nginx": 5472, "yaml": 5473, "BUILD": 5474, "\u00c3\u0142": 5475, "IDTH": 5476, "Step": 5477, "Center": 5478, "pragma": 5479, "aper": 5480, "ilure": 5481, "\u0120video": 5482, "\u0120sn": 5483, "\u0120needed": 5484, "\u0120route": 5485, "Move": 5486, "\u00e6\u012c": 5487, "emy": 5488, "\u010d\u010a\u0120\u0120\u0120\u0120\u0120\u0120\u0120\u0120\u0120\u0120\u0120\u0120\u0120": 5489, "inv": 5490, "CESS": 5491, "\u010a\u0120\u0120\u0120\u0120\u0120\u0120\u0120\u0120\u0120\u0120\u0120\u0120\u0120\u0120\u0120\u0120\u0120\u0120\u0120\u0120\u0120\u0120\u0120\u0120\u0120\u0120\u0120\u0120\u0120\u0120\u0120\u0120\u0120\u0120\u0120\u0120\u0120\u0120\u0120\u0120\u0120\u0120\u0120\u0120\u0120\u0120\u0120": 5492, "Username": 5493, "city": 5494, "runtime": 5495, "timeout": 5496, "children": 5497, "centage": 5498, "Hub": 5499, "\u0120split": 5500, "translate": 5501, "CI": 5502, "\u0120nav": 5503, "mas": 5504, "\u0120transaction": 5505, "zone": 5506, "=\"\"": 5507, "linux": 5508, "lier": 5509, "Job": 5510, "Person": 5511, "dashboard": 5512, "\u00e6\u0131": 5513, "relative": 5514, "secondary": 5515, "/{": 5516, "\u0120alpha": 5517, "TARGET": 5518, "\u00e4\u00bd\u00bf\u00e7\u0136\u00a8": 5519, "\u0120again": 5520, "78": 5521, "STRAINT": 5522, "\u0120products": 5523, "\u0120'$": 5524, "ua": 5525, "\u0120los": 5526, "\u0120represent": 5527, "Mapping": 5528, "scripts": 5529, "\u00ef\u00b8\u0131": 5530, "\u00e5\u012c\u00a8": 5531, "ari": 5532, "hand": 5533, "rollers": 5534, "Tex": 5535, "\u0120span": 5536, "\u0120different": 5537, "Direction": 5538, "***": 5539, "\u00e4\u00b8\u012d": 5540, "factor": 5541, "\u00e5\u0140\u012d": 5542, "\">{": 5543, "Mouse": 5544, "SV": 5545, "sy": 5546, "leader": 5547, "<<\"": 5548, "lare": 5549, "\u0120ok": 5550, "\u0120Integer": 5551, "loaded": 5552, "\u012090": 5553, "\u0120Vec": 5554, "\u0120labels": 5555, "BASE": 5556, "visible": 5557, "pendency": 5558, "\u00e5\u00af\u00b9": 5559, "Layer": 5560, "\u0120axios": 5561, "<!": 5562, "\u0120Sign": 5563, "\u00e7\u00a8": 5564, "Common": 5565, "war": 5566, "::{": 5567, "cpu": 5568, "\u0120inline": 5569, "/*.": 5570, "\u0120-=": 5571, "Scale": 5572, "Ptr": 5573, "license": 5574, "->{": 5575, "herit": 5576, "Side": 5577, "\u0120sys": 5578, ".',": 5579, "dl": 5580, "team": 5581, "\u0120Java": 5582, "Comment": 5583, "\u0120callback": 5584, "Area": 5585, "================================================================": 5586, "validate": 5587, "flag": 5588, "\u0120contact": 5589, "El": 5590, "rules": 5591, "(|": 5592, "inux": 5593, "tract": 5594, "strict": 5595, "rx": 5596, "\u0120folder": 5597, "fonts": 5598, "\u012064": 5599, "\u0120Ph": 5600, "\u0120specified": 5601, "\u0120<>": 5602, "Cache": 5603, "ini": 5604, "\u00d9\u0123": 5605, "\u0120extract": 5606, "\u0120linear": 5607, "employ": 5608, "\u0120THEN": 5609, "Has": 5610, "52": 5611, "Implementation": 5612, "alert": 5613, "\u0120previous": 5614, "Identifier": 5615, "\u0120\u0120\u0120\u0120\u0120\u0120\u0120\u0120\u0120\u0120\u0120\u0120\u0120\u0120\u0120\u0120\u0120\u0120\u0120": 5616, "jav": 5617, "done": 5618, "\u0120REFERENCES": 5619, "2000": 5620, "incip": 5621, "\u00e6\u00a8": 5622, "\u0120question": 5623, "\u0120fixed": 5624, "\u00e7\u00ac": 5625, "\u0120schema": 5626, "\u0120ans": 5627, "\u0120tool": 5628, "\u0120Fe": 5629, "ural": 5630, "mbers": 5631, "\u0120columns": 5632, "\u00e6\u00b3\u0137": 5633, "\u00ec\u00a7\u0122": 5634, "ascript": 5635, "\u0120sent": 5636, "iteral": 5637, "76": 5638, "about": 5639, "bi": 5640, "serif": 5641, "ely": 5642, "\u0120OF": 5643, "\u00d0\u00be\u00d1\u0124": 5644, "flat": 5645, "pm": 5646, "volume": 5647, "cessed": 5648, "AME": 5649, "variant": 5650, "\u0120note": 5651, "\u0120numbers": 5652, "Sn": 5653, "\u0120single": 5654, "okie": 5655, "callback": 5656, "Year": 5657, "disp": 5658, "VO": 5659, "\u0120Custom": 5660, "\u00e5\u0143\u013a": 5661, "ones": 5662, "\u0120syn": 5663, "\u0120they": 5664, "\u0120\u0120\u0120\u0120\u0120\u0120\u0120\u0120\u0120\u0120\u0120\u0120\u0120\u0120\u0120\u0120\u0120": 5665, "Scroll": 5666, "ordinates": 5667, "ino": 5668, "Import": 5669, "\u0120Pr": 5670, "]=": 5671, "lapse": 5672, "Red": 5673, "ench": 5674, "\u0120names": 5675, "pointer": 5676, "\u0120pas": 5677, "signal": 5678, "\u0120always": 5679, "\u0120Load": 5680, ")\\": 5681, "\u0120At": 5682, "\u0120Output": 5683, "\u0120rest": 5684, "memory": 5685, "quantity": 5686, "\u010d\u010a\u0120\u0120\u0120\u0120\u0120\u0120\u0120\u0120\u0120\u0120\u0120\u0120\u0120\u0120\u0120\u0120\u0120\u0120\u0120\u0120\u0120\u0120\u0120\u0120\u0120\u0120\u0120": 5687, "lain": 5688, "HostAddress": 5689, "\"])": 5690, "todo": 5691, "CUR": 5692, "Math": 5693, "\u00e5\u00bb": 5694, "inder": 5695, "\u0120flag": 5696, "\u0120USER": 5697, "\u0120requests": 5698, "\u0120AN": 5699, "raries": 5700, "ourn": 5701, "xyz": 5702, "Desc": 5703, "OLD": 5704, "Tool": 5705, "\")]": 5706, "STR": 5707, "vlet": 5708, "EM": 5709, "51": 5710, "dx": 5711, "\u0120methods": 5712, "%\"": 5713, "kotlin": 5714, "abil": 5715, "\u0120diff": 5716, "Rece": 5717, "\u0120Ob": 5718, "\u0120byte": 5719, "\u00d0\u00b5\u00d0\u00b4": 5720, "\u00e3\u0124\u00af": 5721, "REQUEST": 5722, "\u0120Column": 5723, "Constant": 5724, "\u0120charset": 5725, "WriteLine": 5726, "hs": 5727, "nodes": 5728, "Rel": 5729, "skip": 5730, "\u00eb\u0135": 5731, "balance": 5732, "]}": 5733, "\u0120TIME": 5734, "proxy": 5735, "BUG": 5736, "\u0120calc": 5737, "\u0120SELECT": 5738, "\u0120MO": 5739, ":**": 5740, "\u00e6\u0123": 5741, "sheet": 5742, "constraint": 5743, "AG": 5744, "\u0120sender": 5745, "UND": 5746, "axi": 5747, "APP": 5748, "Chat": 5749, "projects": 5750, "Vec": 5751, "toBe": 5752, "\u0120django": 5753, "\u0120alloc": 5754, "\u00e6\u012a\u00b7": 5755, "Properties": 5756, "Regist": 5757, "aff": 5758, "conv": 5759, "\u0120mean": 5760, "\u0120600": 5761, "\u00e7\u0143": 5762, "\u0120member": 5763, "Microsoft": 5764, "UD": 5765, "USE": 5766, "CTOR": 5767, "properties": 5768, "\"},": 5769, "\u0120cp": 5770, "WORKDIR": 5771, "kt": 5772, "dropdown": 5773, "\u010a\u0120\u0120\u0120\u0120\u0120\u0120\u0120\u0120\u0120\u0120\u0120\u0120\u0120\u0120\u0120\u0120\u010a\u0120\u0120\u0120\u0120\u0120\u0120\u0120\u0120\u0120\u0120\u0120\u0120\u0120\u0120\u0120": 5774, "\u0120Component": 5775, "cli": 5776, "detail": 5777, "\u00d0\u00be\u00d0\u00b1": 5778, "Axis": 5779, "\u0120tmp": 5780, "\u0120util": 5781, "\u0120join": 5782, "enabled": 5783, "Pattern": 5784, "inecraft": 5785, "ills": 5786, "Additional": 5787, "Const": 5788, "\u0120library": 5789, "anced": 5790, "\u00e4\u00bf\u00a1": 5791, "wind": 5792, "\u0120Sw": 5793, ")$": 5794, ")-": 5795, "rest": 5796, "\u0120readonly": 5797, "\u0120\u0120\u0120\u0120\u0120\u0120\u0120\u0120\u0120\u0120\u0120\u0120\u0120\u0120\u0120\u0120\u0120\u0120\u0120\u0120": 5798, "\u00e7\u0124\u00b9": 5799, "INFO": 5800, "ifications": 5801, "63": 5802, "sig": 5803, "\u0120Mem": 5804, "\u0120high": 5805, "\u0120autom": 5806, "\u0120animation": 5807, "ITION": 5808, "etter": 5809, "\u0120drop": 5810, "\u0120\u00eb\u00b0": 5811, "-[#": 5812, "fine": 5813, "\u00e8\u0129": 5814, "\u0120common": 5815, "9999": 5816, "\u0120Service": 5817, "\u00db\u012e": 5818, "ANG": 5819, "uggest": 5820, "cn": 5821, "audio": 5822, "references": 5823, "\u0120sa": 5824, "Compat": 5825, "ped": 5826, "\u0120Remove": 5827, "depth": 5828, "\u0120black": 5829, "pool": 5830, "GL": 5831, "\u0120handler": 5832, "\u0120mx": 5833, "llum": 5834, "kw": 5835, "tocol": 5836, "ITH": 5837, "\u0120red": 5838, "Parser": 5839, "ViewModel": 5840, "IR": 5841, "postgres": 5842, "Callback": 5843, "lation": 5844, "\u010a\u0109\u0109\u0109\u0109\u0109\u0109\u0109\u0109": 5845, "TEST": 5846, ")[": 5847, "\u013e\u0127": 5848, "ensity": 5849, "\u0120short": 5850, "Sort": 5851, "\u0120strings": 5852, "\u00e9\u0129\u0131": 5853, "ina": 5854, "Question": 5855, "ateway": 5856, "\u00d0\u00b0\u00d0\u00bd\u00d0\u00b8": 5857, "\u0120Item": 5858, "cluster": 5859, "\u0120\u00c4\u0133": 5860, "fold": 5861, "\u00e8\u00bf\u013b": 5862, "\u00e4\u00ba\u0130": 5863, "guard": 5864, "\u00e6\u0130\u00a5": 5865, "sync": 5866, "riend": 5867, "`);": 5868, "dos": 5869, "Sdk": 5870, "\u0120Client": 5871, "\u0120xml": 5872, "\u0120release": 5873, "\u0120world": 5874, "SCA": 5875, "\u0120\"--": 5876, "Accept": 5877, "\u00d0\u00b8\u00d1\u0123": 5878, "\u00d0\u00be\u00d0\u00b3": 5879, "available": 5880, "(!": 5881, "Folder": 5882, "FIX": 5883, "apshot": 5884, "CLI": 5885, "\u0120bar": 5886, "\"].": 5887, "dialog": 5888, "\u0120age": 5889, "\u00e6\u012d": 5890, "world": 5891, "course": 5892, "****************************************************************": 5893, "Member": 5894, "Driver": 5895, "GPIO": 5896, "=%": 5897, "\u00e7\u00a4\u00ba": 5898, "\u0120Status": 5899, "\u0120Bu": 5900, "\u0120unt": 5901, "={`": 5902, "jection": 5903, "rive": 5904, "\u0120effect": 5905, "prompt": 5906, "-%": 5907, "\u0120\u0120\u0120\u0120\u0120\u0120\u0120\u0120\u0120\u0120\u0120\u0120\u0120\u0120\u0120\u0120\u0120\u0120": 5908, "sin": 5909, ".(": 5910, "dat": 5911, "\u00d1\u0128\u00d0\u00b8": 5912, "\u00e6\u013d": 5913, "slice": 5914, "ulo": 5915, "\u0120nn": 5916, "jar": 5917, "CMD": 5918, "\u0120Part": 5919, "\u0120IO": 5920, "oggle": 5921, "HOME": 5922, "\u0120Font": 5923, "\u0120CONSTRAINT": 5924, "Connect": 5925, "Definition": 5926, "\u0120Player": 5927, "]{": 5928, "slug": 5929, "remote": 5930, "istics": 5931, "\u0120der": 5932, "\u0120So": 5933, "\u0120queue": 5934, "\u0120payload": 5935, "\u0120../": 5936, "packages": 5937, "\u0120Account": 5938, "land": 5939, "mysql": 5940, "aging": 5941, "\u00e5\u00a4\u00a7": 5942, "ured": 5943, "\u0120enabled": 5944, "\u00d1\u012b": 5945, "Timer": 5946, "EC": 5947, "curs": 5948, "Tri": 5949, "legate": 5950, "Socket": 5951, "ores": 5952, "\u0120plan": 5953, "\u00eb\u0142": 5954, "\u0120board": 5955, "\u0120sans": 5956, "\u0120Float": 5957, "\u0120cy": 5958, "uffix": 5959, "Month": 5960, "pare": 5961, "\u012a\u00eb\u012d\u00a4": 5962, "sym": 5963, "\u0120\"+": 5964, "\u00d0\u00bd\u00d0\u00b0": 5965, "============": 5966, "argument": 5967, "nil": 5968, "\u0120Var": 5969, "cdn": 5970, "awn": 5971, "94": 5972, "ssible": 5973, "SOURCE": 5974, "Duration": 5975, "\u00e6\u013e\u00ac": 5976, "STAT": 5977, "Can": 5978, "blog": 5979, "\u0120Send": 5980, "focus": 5981, "\u00d9\u0129": 5982, "\u00e9\u0123": 5983, "82": 5984, "Dim": 5985, "spacing": 5986, "('.": 5987, "ev": 5988, "-->": 5989, "\u00e5\u0132\u012f": 5990, "firebase": 5991, "\u00e5\u00bb\u00ba": 5992, "parser": 5993, "arge": 5994, "Util": 5995, "UC": 5996, "\u0120setIs": 5997, ">{{": 5998, "reat": 5999, "oly": 6000, "ti": 6001, "\u0120shift": 6002, "\u0120NO": 6003, "aci\u00c3\u00b3n": 6004, "pred": 6005, "gration": 6006, "chart": 6007, "\u00e5\u0132\u012a": 6008, "dto": 6009, "\\_": 6010, "\u0120pair": 6011, "ignore": 6012, "Rot": 6013, "\u0120Initialize": 6014, "\u0120side": 6015, "Copy": 6016, "\u0120dataset": 6017, "Requires": 6018, "\u00e7\u0136\u0141": 6019, "\u010a\u010a\u010a\u010a\u010a\u010a\u010a\u010a": 6020, "PROJECT": 6021, "sil": 6022, "\u0120fs": 6023, "\u0120aws": 6024, "\u0120'.": 6025, "\u0120\u00c3\u00a9": 6026, "mobile": 6027, "ifest": 6028, "\u0120er": 6029, "\u0109\u0109\u0109\u0109\u0109\u0109\u0109\u0109": 6030, "}_": 6031, "Expr": 6032, "\u00e5\u0131\u0133": 6033, "ii": 6034, "nix": 6035, "\u0120simp": 6036, "\u0120delay": 6037, "\u0120See": 6038, "endor": 6039, "resources": 6040, "\u0120param": 6041, "\u0120clk": 6042, "'];": 6043, "erate": 6044, "Bottom": 6045, "shift": 6046, "Border": 6047, "\u0120Handle": 6048, "\u00d0\u00be\u00d0\u00ba": 6049, "invalid": 6050, "=\"${": 6051, "\u0120keys": 6052, "\u00e5\u00ba\u00a6": 6053, "ecause": 6054, "\u0120Box": 6055, "([]": 6056, "\u0120symbol": 6057, "Shader": 6058, "EGER": 6059, "multip": 6060, "\u0120prefix": 6061, "Board": 6062, "parameters": 6063, "\u0120feature": 6064, "dm": 6065, "\u0120repository": 6066, "\u0120Application": 6067, "timer": 6068, "NET": 6069, "vision": 6070, "\u0120createdAt": 6071, "oll": 6072, "\u0120events": 6073, "\u00c3\u00ba": 6074, "Tasks": 6075, "\u0120operator": 6076, "84": 6077, "\u00e5\u0133": 6078, "optional": 6079, "Fil": 6080, "Gra": 6081, "PAR": 6082, "payment": 6083, "=\"_": 6084, "\u0120Mon": 6085, "74": 6086, "uce": 6087, "ae": 6088, "\u00ed\u012c": 6089, "\u0120issue": 6090, "\u0120\u010a\u0120\u0120\u0120\u0120\u0120": 6091, "demo": 6092, "!\"": 6093, "Div": 6094, "Long": 6095, "warning": 6096, "\u0120\"{": 6097, "\u0120loading": 6098, "\u00e9\u0136": 6099, "compile": 6100, "Plan": 6101, "Speed": 6102, "til": 6103, "]))": 6104, "\u0120these": 6105, "\u0120LO": 6106, "allback": 6107, "Equals": 6108, "alar": 6109, "\u0120protected": 6110, "8080": 6111, "\u0120Show": 6112, "53": 6113, "\u00e5\u0135": 6114, "\u0120invalid": 6115, "\u0120GPIO": 6116, "Day": 6117, "policy": 6118, "exist": 6119, "\u00e4\u00b8\u012c": 6120, "\u00d0\u00b5\u00d0\u00ba": 6121, "avor": 6122, "\u0120late": 6123, "\u0120zero": 6124, "\u0120provider": 6125, "\u0120prompt": 6126, "bc": 6127, "lluminate": 6128, "dc": 6129, "\u0120express": 6130, "\u0120meta": 6131, "\u0120\u00e2\u012a": 6132, "lider": 6133, "su": 6134, "\u012f\u00e7\u00bd\u00ae": 6135, "otel": 6136, "partment": 6137, "Allow": 6138, "\u00d1\u0138": 6139, "\u0120most": 6140, "Scope": 6141, "kan": 6142, "\u0120dict": 6143, "brand": 6144, "override": 6145, "CONFIG": 6146, "Writer": 6147, "\u0120<?": 6148, "\u0120gr": 6149, "CREMENT": 6150, "ima": 6151, "\u0120bold": 6152, "\u0120Include": 6153, "some": 6154, "Dest": 6155, "OIN": 6156, "\u0120ve": 6157, "\u0120chat": 6158, "\u00d0\u00b3": 6159, "clock": 6160, "apter": 6161, "\u00e6\u0138\u0129\u00e4\u00bb\u00b6": 6162, "\u00c5\u0141": 6163, "\u00e5\u012c\u00a1": 6164, "\u0120team": 6165, "lied": 6166, "\u0120internal": 6167, "opacity": 6168, "fficient": 6169, "\u0120equal": 6170, "\u0120Dire": 6171, "LOW": 6172, "gorithm": 6173, "Det": 6174, "proc": 6175, "\u00e6\u0122\u00a7": 6176, "tar": 6177, "\u0120Search": 6178, "WIDTH": 6179, "\u0120Print": 6180, "\u0124\u00ac": 6181, "Library": 6182, "native": 6183, "GRA": 6184, "ple": 6185, "Report": 6186, "?>": 6187, "Parse": 6188, "Sample": 6189, "ernel": 6190, "\u00ec\u0126\u013e": 6191, "[];": 6192, "\u0120CHE": 6193, "\u0120xs": 6194, "Bytes": 6195, "photo": 6196, "\u0120Content": 6197, "Cre": 6198, "sidebar": 6199, "ste": 6200, "\u0120saved": 6201, "OF": 6202, "Statement": 6203, "\u0120Copyright": 6204, "%);": 6205, "IES": 6206, "pts": 6207, "mu": 6208, "xf": 6209, "\u0120inputs": 6210, "payload": 6211, "\u0120\u00ed\u0137": 6212, "repeat": 6213, "CODE": 6214, "ji": 6215, "condition": 6216, "correct": 6217, "\u00e4\u00b8\u0122\u00e4\u00b8\u00aa": 6218, "\u0120Process": 6219, "mul": 6220, "ets": 6221, "\u0120rate": 6222, "alias": 6223, "So": 6224, "\u0120builder": 6225, "Repo": 6226, "Example": 6227, "\u0120FORE": 6228, "\u0120\u00d0\u00b1": 6229, "\u0120disabled": 6230, "ually": 6231, "Chart": 6232, "\u00e6\u0123\u00af": 6233, "pet": 6234, "Products": 6235, "\u0120\u010a\u0120\u0120\u0120\u0120\u0120\u0120\u0120\u0120\u0120\u0120\u0120\u0120\u0120\u0120\u0120": 6236, "Interval": 6237, "motion": 6238, "ToString": 6239, "\u0120layout": 6240, "\u0120(_": 6241, "ilar": 6242, "\u0120own": 6243, "\u0120Hel": 6244, "\u00eb\u0131": 6245, "imated": 6246, "Fields": 6247, "69": 6248, "79": 6249, "\u0120area": 6250, "-----": 6251, "\u0120Please": 6252, "returns": 6253, "\u0120si": 6254, "\u0120pip": 6255, "\u0120metr": 6256, "Aut": 6257, "deps": 6258, "JS": 6259, "\u0120Man": 6260, "Namespace": 6261, "\u0120validation": 6262, "\u0120sim": 6263, "den": 6264, "Customer": 6265, "Progress": 6266, "figure": 6267, "\u00e5\u0122\u00bc": 6268, "\u00d8\u00b3": 6269, "Initial": 6270, "\u0120FOREIGN": 6271, "-.": 6272, "sr": 6273, "\u0120mask": 6274, "\u0120Select": 6275, "\u0120binary": 6276, "404": 6277, "\u00e4\u00ba\u00ba": 6278, "\u0120HTML": 6279, "tech": 6280, "120": 6281, "cut": 6282, "\u0120city": 6283, "\u0120scroll": 6284, "\u0120extra": 6285, "ato": 6286, "Pop": 6287, "NC": 6288, "radient": 6289, "\u0120ps": 6290, "={(": 6291, "\u0120cost": 6292, "ceed": 6293, "urchase": 6294, "Trigger": 6295, "Wait": 6296, "mbok": 6297, "\u00e9\u0127": 6298, "\u0120'{": 6299, "\u0120Description": 6300, "lim": 6301, "Idx": 6302, "\u0120UP": 6303, "}}/": 6304, "\u0120SQL": 6305, "DX": 6306, "pid": 6307, "\u0120tasks": 6308, "Mut": 6309, "elcome": 6310, "fol": 6311, "\u0120driver": 6312, "\u0120Database": 6313, "shop": 6314, "Note": 6315, "uber": 6316, "\u0120added": 6317, "edge": 6318, "seed": 6319, "absol": 6320, "Mod": 6321, "ante": 6322, "\u0120optim": 6323, "kind": 6324, "ivers": 6325, "/*!": 6326, "\u0120\u00c2\u0142\u0120\u00c2\u0142": 6327, "yes": 6328, "\u0120na": 6329, "lapsed": 6330, "VM": 6331, "WA": 6332, "ificate": 6333, "transaction": 6334, "\u00e5\u0143\u0139": 6335, "\u0120Icon": 6336, "ecycle": 6337, "\u0120\"{{": 6338, "\u0120toast": 6339, "\u00e5\u012b\u012f": 6340, "decode": 6341, "uplic": 6342, "tle": 6343, "otes": 6344, "]\"": 6345, "II": 6346, "\u0120Home": 6347, "\u00e7\u013d\u00ae": 6348, "\u00e7\u0142": 6349, "\u0120Str": 6350, "Channel": 6351, "\u00ec\u012d\u013e": 6352, "\u0120nullptr": 6353, "}`,": 6354, "\u0120sig": 6355, ")));": 6356, "vertex": 6357, "Iter": 6358, "Auto": 6359, "present": 6360, "itect": 6361, "anger": 6362, "\u0120scan": 6363, "\u0120timeout": 6364, "\u0120what": 6365, "\u0120rotate": 6366, "Db": 6367, "CF": 6368, "sleep": 6369, ",:": 6370, "\u0120Server": 6371, "(['": 6372, "absolute": 6373, "\u0120services": 6374, "seconds": 6375, "Ids": 6376, "Framework": 6377, "CTYPE": 6378, "hero": 6379, "fast": 6380, "enticated": 6381, "ched": 6382, "ining": 6383, "\u0120Author": 6384, "prec": 6385, "\u0120Any": 6386, "Fin": 6387, "Parent": 6388, "\u0120compile": 6389, "\u00e8\u00a8": 6390, "cv": 6391, "\u00ea\u00b2": 6392, "\u0120am": 6393, "loader": 6394, "Track": 6395, "\u0120multiple": 6396, "\u00e5\u013b": 6397, "\u0120um": 6398, "interval": 6399, "\u0120best": 6400, "\u0120would": 6401, "vol": 6402, "History": 6403, "\u0120both": 6404, "Authorization": 6405, "\u0120Query": 6406, "sel": 6407, "pires": 6408, "\u0120pa": 6409, "\"\"\"\"\"\"\"\"": 6410, "Feature": 6411, "catch": 6412, "\u0120retri": 6413, "mplements": 6414, "positories": 6415, "RIG": 6416, "\u00e3\u0125\u00bc\u00e3\u0124": 6417, "tf": 6418, "=\"<": 6419, "uman": 6420, "Alert": 6421, "\u0120\"[": 6422, "\u0120\u00d1\u0125": 6423, "collect": 6424, "Video": 6425, "cer": 6426, "ips": 6427, "2022": 6428, "\u0120localStorage": 6429, "SL": 6430, "\u00e7\u00ab": 6431, "secret": 6432, "\u0120raw": 6433, "Servlet": 6434, "apache": 6435, "\u0120\u00d0\u00bd\u00d0\u00b0": 6436, "%%%%%%%%": 6437, "\u0120called": 6438, "\u0120subject": 6439, "\u0120Class": 6440, "\u0120counter": 6441, "sent": 6442, "\u0120die": 6443, "\u00ec\u012c\u00a4": 6444, "\u0120nodes": 6445, "program": 6446, "Any": 6447, "\u0120``": 6448, "Phone": 6449, "Metadata": 6450, "\u0120IP": 6451, "\u0120DELETE": 6452, "={\"": 6453, "\u0120CHECK": 6454, "ming": 6455, "\u0120AUTO": 6456, "DOCTYPE": 6457, "\u0120deploy": 6458, "bound": 6459, "KEN": 6460, "\u0120lower": 6461, "\u0120:-": 6462, "Hello": 6463, "oney": 6464, "Cal": 6465, "pear": 6466, "formed": 6467, "\u0120throws": 6468, "\u00eb\u012d\u012a\u00eb\u012d\u00a4": 6469, "abase": 6470, "72": 6471, "progress": 6472, "plus": 6473, "sembly": 6474, "PLA": 6475, "bran": 6476, "Doc": 6477, "\u00ec\u013c\u00a9": 6478, "\u0120mk": 6479, "MI": 6480, "\u00e6\u00b1": 6481, "\u0120indic": 6482, "\u0120alias": 6483, "webkit": 6484, ":'": 6485, "rating": 6486, "\u00e7\u00a8\u012d": 6487, "AdditionalFiles": 6488, "Ge": 6489, "\u0120platform": 6490, "\u0120Illuminate": 6491, "\u0120POST": 6492, "\u0120foreach": 6493, "ostream": 6494, "\u00d0\u00b8\u00d0\u00bc": 6495, "cmp": 6496, "lour": 6497, "datetime": 6498, "hex": 6499, "\u0120who": 6500, "upabase": 6501, "\u00e0\u00a5": 6502, "\u0120Di": 6503, "\u0120colors": 6504, "\u00e5\u00a6\u0124": 6505, "idad": 6506, ")\")": 6507, "\u0120typ": 6508, "\u0120fix": 6509, "\u0120Line": 6510, "oo": 6511, "vars": 6512, "Counter": 6513, "\u00e5\u013b\u00a8": 6514, "DEX": 6515, "81": 6516, "\u0120fig": 6517, "classList": 6518, "\u0120}}>": 6519, "requency": 6520, "\u0120bus": 6521, "Please": 6522, "\u00e8\u00b7": 6523, "utral": 6524, "Helper": 6525, "\u0120socket": 6526, "ulation": 6527, "\u0120Email": 6528, "\u0120ensure": 6529, "mouse": 6530, "rank": 6531, "\u0120ignore": 6532, "aker": 6533, "++){": 6534, "\u0120pt": 6535, "\u0120backend": 6536, "\u0120changes": 6537, "\u0120&:": 6538, "subject": 6539, "complete": 6540, "cccc": 6541, "\u0120download": 6542, "flutter": 6543, "itHub": 6544, "\u0120\u00d0\u0141": 6545, "\u0120Hash": 6546, "stock": 6547, "usion": 6548, "\u00c2\u0142": 6549, "Sk": 6550, "stringify": 6551, "binary": 6552, "\u0120THE": 6553, "/:": 6554, "Cl": 6555, "\u0120small": 6556, "ongoose": 6557, "lik": 6558, "\u0120Window": 6559, "scan": 6560, "\u00e5\u0132\u0130": 6561, "workspace": 6562, "ye": 6563, "\u0120activ": 6564, "()).": 6565, "\u0120Count": 6566, "rust": 6567, "INCREMENT": 6568, "star": 6569, "into": 6570, "\u0120domain": 6571, "150": 6572, "alary": 6573, "ointment": 6574, "\u00e6\u0125": 6575, "idence": 6576, "\u0120chunk": 6577, "vi": 6578, "\u0120analysis": 6579, "\u0120unsigned": 6580, "Remove": 6581, "ROP": 6582, "bt": 6583, "\u0120Local": 6584, "ony": 6585, "Keys": 6586, "`:": 6587, "\u0120-}}": 6588, "\u0120AI": 6589, "ny": 6590, "92": 6591, "uting": 6592, "\u0120cross": 6593, "\u012035": 6594, "LOGIC": 6595, "\u0120references": 6596, "\u00e7\u00b4": 6597, "Adapter": 6598, "World": 6599, "\u0120tex": 6600, "\u00e3\u0123\u012e": 6601, "maining": 6602, "boolean": 6603, "Errorf": 6604, "Random": 6605, "\u0120Ab": 6606, "\u0120simple": 6607, "\u0120speed": 6608, "\u0120150": 6609, "integer": 6610, "ente": 6611, "\u00e3\u0123\u00a8": 6612, "\u0120STD": 6613, "\u0120seconds": 6614, "\">{{": 6615, "\u0120Work": 6616, "Points": 6617, "\u0120MAX": 6618, "00000": 6619, "ROOT": 6620, "\u0120cin": 6621, "iso": 6622, "\u00eb\u00a6\u00ac": 6623, "ili": 6624, "\u0120matches": 6625, "\u0120bin": 6626, "pense": 6627, "mooth": 6628, "ergy": 6629, "groups": 6630, "\u0120company": 6631, "VA": 6632, "\u0120because": 6633, "weather": 6634, "\u0120rem": 6635, ":-": 6636, "Vertex": 6637, "fc": 6638, "\u0120ul": 6639, "Parameters": 6640, "editor": 6641, "ssh": 6642, "\u0120tech": 6643, "Language": 6644, "\u0120(-": 6645, "asm": 6646, "Mapper": 6647, "[-": 6648, "\u010a\u0120\u0120\u0120\u0120\u0120\u0120\u0120\u0120\u0120\u0120\u0120\u0120\u0120\u0120\u0120\u0120\u0120\u0120\u0120\u0120\u0120\u0120\u0120\u0120\u0120\u0120\u0120\u0120\u0120\u0120\u0120\u0120\u0120": 6649, "Validation": 6650, "BER": 6651, "\u0120ing": 6652, "lated": 6653, "FS": 6654, "\u0120Vis": 6655, "\u010a\u010a\u0120\u0120\u0120\u0120\u0120\u0120\u0120\u0120\u0120\u0120\u0120\u0120\u0120\u0120\u0120\u0120\u0120\u0120\u0120\u0120\u0120\u0120\u0120": 6656, "\u0120face": 6657, "express": 6658, "\u0120math": 6659, "\u0120within": 6660, "cion": 6661, "\u0120les": 6662, "ops": 6663, "\u0120upload": 6664, "\u0120Admin": 6665, "\u0120hel": 6666, "\u0137\u00e3\u0124": 6667, "deploy": 6668, "PP": 6669, "Press": 6670, "digo": 6671, "\u0120Point": 6672, "\u0120NextResponse": 6673, "\u00e8\u00ae\u00a1": 6674, "shell": 6675, "Memory": 6676, "\u0120primary": 6677, "\u0120via": 6678, "\u0120INTEGER": 6679, "\u0120\u00d0\u00b4\u00d0\u00bb\u00d1\u0131": 6680, "\u0120core": 6681, "\u0120fast": 6682, "\u0120por": 6683, "\u00c3\u00b6": 6684, "PR": 6685, "cost": 6686, "PREFIX": 6687, "\u0120Be": 6688, "\u0120axis": 6689, "<=": 6690, "127": 6691, "\u0130\u00b7": 6692, "\u0120GET": 6693, "\u00ec\u013e": 6694, "\u010a\u0120\u0120\u0120\u0120\u0120\u0120\u0120\u0120\u0120\u0120\u0120\u0120\u0120\u0120\u0120\u0120\u0120\u0120\u0120\u0120\u0120\u0120": 6695, "\u0120Category": 6696, "IAL": 6697, "iling": 6698, "Wrapper": 6699, ")->": 6700, "Del": 6701, "questions": 6702, "DEFAULT": 6703, "metric": 6704, "()),": 6705, "LD": 6706, "chunk": 6707, "\u0120owner": 6708, "\u0120present": 6709, "\u00e8\u00ae\u00be": 6710, "istic": 6711, "viewport": 6712, "compat": 6713, "Results": 6714, "Tile": 6715, "\u00a7\u012d": 6716, "sect": 6717, "\u0120{},": 6718, "\u0120front": 6719, "\u00e3\u0123\u00af": 6720, "Limit": 6721, "getString": 6722, "COMP": 6723, "\u00e6\u0142\u0129": 6724, ">]": 6725, "\u00e5\u013f": 6726, "pending": 6727, "\u0120components": 6728, "slot": 6729, "LATE": 6730, "vement": 6731, "arp": 6732, "\u0120implements": 6733, "\u0120Dec": 6734, "deli": 6735, "confirm": 6736, "\u0120Header": 6737, "_.": 6738, "ida": 6739, "compiler": 6740, "\u0120upper": 6741, "\u00e9\u013f\u00a2": 6742, "bove": 6743, "CXX": 6744, "netes": 6745, "lished": 6746, "\u00e5\u013d\u0140": 6747, "\u012070": 6748, "inf": 6749, "concat": 6750, "\u010a\u0109\u0120": 6751, "\u00e3\u0125\u00bc\u00e3\u0125": 6752, "\u010a\u0120\u0120\u0120\u0120\u0120\u0120\u0120\u0120\u010a\u0120\u0120\u0120": 6753, "\u00d0\u0140": 6754, "movie": 6755, "\u0120reserv": 6756, "\u0120initialize": 6757, "\u0120software": 6758, "javascript": 6759, "\u0120icons": 6760, "Now": 6761, "contract": 6762, "ubernetes": 6763, "La": 6764, "eb": 6765, "\u0120vertex": 6766, "\u00d8\u00b9": 6767, "ention": 6768, "incipal": 6769, "BEGIN": 6770, "pan": 6771, "LINE": 6772, "Insert": 6773, "Components": 6774, "prop": 6775, "datasource": 6776, "Pub": 6777, "provider": 6778, "Mask": 6779, "\u00e9\u0122\u013c": 6780, "floor": 6781, "sing": 6782, "\u0120balance": 6783, "HOST": 6784, "Gen": 6785, "\u0120Index": 6786, "\u00e8\u00b5": 6787, "ito": 6788, "\u0120rm": 6789, "ALSE": 6790, "Events": 6791, "\u0120external": 6792, "TL": 6793, "ison": 6794, "\u0120rpc": 6795, "earer": 6796, "\u00e4\u00bc\u013c": 6797, "ders": 6798, "Scene": 6799, "Required": 6800, "original": 6801, "gi": 6802, "chron": 6803, "\u0120health": 6804, "gative": 6805, "Media": 6806, "classes": 6807, "vg": 6808, "\u0120Docker": 6809, "highlight": 6810, "isEmpty": 6811, "\u0120payment": 6812, "\u0120scope": 6813, "Real": 6814, "company": 6815, "Foreground": 6816, "Sheet": 6817, "\u0120\u00e3\u0125": 6818, "unity": 6819, "ktop": 6820, "pur": 6821, "design": 6822, "@\"": 6823, "otor": 6824, "Place": 6825, "upt": 6826, "\u0120Calculate": 6827, "\u0120Make": 6828, "\u00e8\u00af\u00b7": 6829, "\u0120xmlns": 6830, "scope": 6831, "disabled": 6832, "wards": 6833, "\u0120im": 6834, "ough": 6835, ")'": 6836, "\u0120\u00ec\u0126": 6837, "structions": 6838, "ees": 6839, "lisher": 6840, "havior": 6841, "big": 6842, "\u00e8\u00bf\u0129": 6843, "resolve": 6844, "LOCK": 6845, "FC": 6846, "chine": 6847, "################################################################": 6848, "\u00e5\u00ba\u0136": 6849, "Kit": 6850, "warn": 6851, "\u0120dat": 6852, "\u0120requirements": 6853, "days": 6854, "\u0120layer": 6855, "\u0120mouse": 6856, "\u00d0\u0141": 6857, "\u0120equ": 6858, "links": 6859, "]\\": 6860, "\u0120lat": 6861, "TEXT": 6862, "OM": 6863, "93": 6864, "\u0120cert": 6865, "033": 6866, "\u00e5\u0141": 6867, "setq": 6868, "\u0120Err": 6869, "Shape": 6870, "badge": 6871, ",$": 6872, "Word": 6873, "stage": 6874, "leton": 6875, "\u0120take": 6876, "launch": 6877, "Printf": 6878, "\u0120progress": 6879, "arios": 6880, "\u0120Ste": 6881, "lision": 6882, "\u0120keep": 6883, "62": 6884, "owner": 6885, "\u0120edge": 6886, "ABASE": 6887, "\u0120contract": 6888, "disable": 6889, "nc": 6890, "83": 6891, "\u0120cuda": 6892, "\u0120du": 6893, "\u00e9\u0139\u00b4": 6894, "\u0120implement": 6895, "sound": 6896, "rb": 6897, "\u0120course": 6898, "uler": 6899, "\u00e7\u00bc": 6900, "ctl": 6901, "\u0120characters": 6902, "\u0120art": 6903, "\u0120\"_": 6904, "\u00e5\u00ae\u0140": 6905, "Tags": 6906, ">'": 6907, "agger": 6908, "\u00e7\u0136\u00a8\u00e6\u012a\u00b7": 6909, "[$": 6910, "\u0120endpoint": 6911, "\u0120controller": 6912, "\u0120nullable": 6913, "\u0120Solution": 6914, "allen": 6915, "\u00e6\u00a8\u00a1": 6916, "\u0120Route": 6917, "RY": 6918, "cla": 6919, "sudo": 6920, "\u0120Display": 6921, "staur": 6922, "\u0120pkgs": 6923, "\u0120----------------------------------------------------------------": 6924, "\u0120\u0120\u0120\u0120\u0120\u0120\u0120\u0120\u0120\u0120\u0120\u0120\u0120\u0120\u0120\u0120\u0120\u0120\u0120\u0120\u0120\u0120\u0120\u0120\u0120\u0120\u0120\u0120\u0120\u0120\u0120\u0120\u0120\u0120\u0120\u0120\u0120\u0120\u0120\u0120\u0120\u0120\u0120\u0120\u0120\u0120\u0120\u0120\u0120\u0120\u0120\u0120\u0120\u0120\u0120\u0120\u0120\u0120\u0120\u0120\u0120\u0120\u0120\u0120": 6925, "\u0120\u00ec\u013f\u00b4": 6926, "voke": 6927, "\u0120loss": 6928, "\u0120sure": 6929, "subscribe": 6930, "\u0120emit": 6931, "Win": 6932, "\u0120Find": 6933, "clar": 6934, "\u00d0\u00b0\u00d0\u00b2": 6935, "Collections": 6936, "\u00e6\u00af": 6937, "lask": 6938, "\u00e5\u0130": 6939, "\u0120pack": 6940, "grey": 6941, "gap": 6942, "rong": 6943, "License": 6944, "\u0120design": 6945, "CHECK": 6946, "irebase": 6947, "commend": 6948, "\u00e3\u0125\u0125": 6949, "VICE": 6950, "eslint": 6951, "choice": 6952, "cuda": 6953, "basic": 6954, "mid": 6955, "watch": 6956, "\u0120nums": 6957, "\u0120pages": 6958, "\u0120\u00e5\u012a": 6959, "fact": 6960, "bits": 6961, "\u00e3\u0123\u00aa": 6962, "ni": 6963, "ished": 6964, "Rep": 6965, "REE": 6966, "\u0120execute": 6967, "\u0120applic": 6968, "veloper": 6969, "WT": 6970, "mux": 6971, "3000": 6972, "\u00d8\u00a8": 6973, "\u0120below": 6974, "raints": 6975, "(/": 6976, "Install": 6977, "\u0120tokens": 6978, "alyt": 6979, "Py": 6980, "ication": 6981, "\u0120[<": 6982, "\u0120Long": 6983, "cam": 6984, "=\"\">": 6985, "Policy": 6986, "\u0120Action": 6987, ">},": 6988, "orn": 6989, "vest": 6990, "\u00e8\u00a7\u00a3": 6991, "\u0120Lay": 6992, "reng": 6993, "Audio": 6994, "\u00e9\u013e": 6995, "\u0120supp": 6996, "trl": 6997, "simple": 6998, "Bus": 6999, ":.": 7000, "61": 7001, "Sm": 7002, "ball": 7003, "fx": 7004, "Team": 7005, "\u00d9\u0124": 7006, "upon": 7007, "\u012045": 7008, "like": 7009, "Network": 7010, "norm": 7011, "\u0120properties": 7012, "\u0120Convert": 7013, "OUTPUT": 7014, ":%": 7015, "\u0120props": 7016, "\u0120Generate": 7017, "}},": 7018, "\u0120cat": 7019, "\u00ed\u012c\u00b8": 7020, "plit": 7021, "\u0120CHAR": 7022, "Volume": 7023, "iny": 7024, "\u0120site": 7025, "\u0120evalu": 7026, "Agent": 7027, "torch": 7028, "\u0120sorted": 7029, "refresh": 7030, "Character": 7031, "categories": 7032, "tection": 7033, "MAGE": 7034, "\u0120Command": 7035, "routes": 7036, "failed": 7037, "\"/": 7038, "agnost": 7039, "DC": 7040, "\u0120Element": 7041, "\u0120qual": 7042, "\u0120ca": 7043, "optim": 7044, "Changed": 7045, "WN": 7046, "gz": 7047, "Internal": 7048, "\u00eb\u00b3": 7049, "convert": 7050, "\u0120tile": 7051, "\u0120US": 7052, "POINT": 7053, "\u0120argument": 7054, "\u0120Modifier": 7055, "ifact": 7056, "Created": 7057, "bas": 7058, "\u0120Ne": 7059, "ordinate": 7060, "\u0120Mark": 7061, "\u0120Define": 7062, "ipo": 7063, "\u0120Password": 7064, "upper": 7065, "\u0120Assert": 7066, "Img": 7067, "\u0120audio": 7068, "indent": 7069, "effect": 7070, "destroy": 7071, "redient": 7072, "\u0120steps": 7073, "ategoria": 7074, "\u0120commit": 7075, "Material": 7076, "SCADE": 7077, "aving": 7078, "\u00ec\u0126\u00b1": 7079, "\u0120bot": 7080, "\u0120round": 7081, "Stats": 7082, "Domain": 7083, "period": 7084, "\u0120navigate": 7085, "Def": 7086, "(__": 7087, "TC": 7088, "high": 7089, "etry": 7090, "DEBUG": 7091, "\u00e6\u013e\u0122": 7092, "character": 7093, "Animation": 7094, "crease": 7095, "DELETE": 7096, "COUNT": 7097, "quot": 7098, "SW": 7099, "reet": 7100, "\u0120Back": 7101, "camera": 7102, "\u0120[:": 7103, "ucer": 7104, "\u0120arguments": 7105, "ummy": 7106, "topic": 7107, "\u00e7\u00ae\u0139": 7108, "\u0120stat": 7109, "live": 7110, "\u0120backgroundColor": 7111, "folio": 7112, "?,": 7113, "orem": 7114, "\u00e7\u0137": 7115, "\u0120bind": 7116, "[:,": 7117, "BLE": 7118, "house": 7119, "\u0120fontWeight": 7120, "\u0120vol": 7121, "robot": 7122, "serve": 7123, "\u0120texture": 7124, "\u0120sequence": 7125, "tile": 7126, "unsigned": 7127, "\u0120media": 7128, "notification": 7129, "ead": 7130, "\u0120rect": 7131, "\u0120prod": 7132, "\u00d0\u00ba\u00d0\u00b8": 7133, "\u0120encoding": 7134, "Editor": 7135, "Summary": 7136, "Loader": 7137, "ues": 7138, "dbc": 7139, "POSE": 7140, "tbody": 7141, "73": 7142, "\u0120Car": 7143, "\u0120ident": 7144, "91": 7145, "Pool": 7146, "rio": 7147, "\u0120una": 7148, "eek": 7149, "rd": 7150, "Sync": 7151, "defun": 7152, "\u00ec\u012a\u013a": 7153, "cls": 7154, "NotFound": 7155, "Flag": 7156, "sdk": 7157, "UserId": 7158, "\u0120pad": 7159, "\u0120pred": 7160, "bucket": 7161, "\u0120([": 7162, "asy": 7163, "Exists": 7164, "\u0120'(": 7165, "\u00e8\u00bf\u013d": 7166, "\u0120CODE": 7167, "employee": 7168, "\u00e9\u013a": 7169, "allery": 7170, "\u0120notification": 7171, "\u00d0\u00be\u00d0\u00b9": 7172, "\u00e4\u00bf\u013f": 7173, "\u0120stri": 7174, "single": 7175, "verter": 7176, "\u0120appro": 7177, "Byte": 7178, "\u0120even": 7179, "built": 7180, "=/": 7181, "Generic": 7182, "Age": 7183, "nest": 7184, "\u00e6\u0141\u00a5": 7185, "\u0120*/;": 7186, "iper": 7187, "validation": 7188, "zen": 7189, "extension": 7190, "\u0120Register": 7191, "times": 7192, "\u0120complete": 7193, "POS": 7194, "\u0120usize": 7195, "branch": 7196, "ssl": 7197, "Cond": 7198, "derive": 7199, "LEFT": 7200, "\u0120quantity": 7201, "ipping": 7202, "\u0120low": 7203, "CU": 7204, "\u00d0\u00b6": 7205, "idual": 7206, "\u00ec\u0142\u0137": 7207, "\u0120Store": 7208, "fav": 7209, "Est": 7210, "\u0120binding": 7211, "Att": 7212, "\u0120Student": 7213, "foreach": 7214, "\u0120way": 7215, "\u0120Sec": 7216, "HA": 7217, "\u0120WH": 7218, "heading": 7219, "Generator": 7220, "iostream": 7221, "It": 7222, "Owner": 7223, "\u0120stage": 7224, "eve": 7225, "\u0120above": 7226, "\u0120virtual": 7227, "\u00e9\u013e\u0122": 7228, "Mobile": 7229, "SK": 7230, "SERVER": 7231, "lica": 7232, "environment": 7233, "Distance": 7234, "Toggle": 7235, "\u0120seg": 7236, "\u0120Label": 7237, "Non": 7238, "Asset": 7239, "2020": 7240, "()))": 7241, "\u0120[{": 7242, "\u0120completed": 7243, "\u0120uv": 7244, "oom": 7245, "chan": 7246, "\u00d0\u00b0\u00d1\u0122": 7247, "\u0120Chat": 7248, "rain": 7249, "Align": 7250, "hether": 7251, "::::": 7252, "\u0120Arg": 7253, "\u00d0\u00b5\u00d0\u00bd\u00d0\u00b8\u00d0\u00b5": 7254, "king": 7255, "ov": 7256, "URI": 7257, "\u00ed\u0137\u013e": 7258, "rength": 7259, "Mar": 7260, "tb": 7261, "ism": 7262, "pkgs": 7263, "\u00d0\u00be\u00d0\u00bd": 7264, "\u0120npm": 7265, "\u0120))}": 7266, "\u0120TRUE": 7267, "\u0120Save": 7268, "frames": 7269, "\u0120operation": 7270, "LowerCase": 7271, "power": 7272, "versation": 7273, "After": 7274, "]/": 7275, "\u010d\u010a\u0109\u0109\u0109\u0109": 7276, "\u0120\"*": 7277, "Fixed": 7278, "\\.": 7279, "\u00e5\u00a2": 7280, "2021": 7281, "notation": 7282, "\u0120prec": 7283, "Cap": 7284, "oration": 7285, "foundation": 7286, "\u0120Import": 7287, "izar": 7288, "URN": 7289, "EW": 7290, "agram": 7291, "\u00e5\u0128\u0127": 7292, "steps": 7293, "Todo": 7294, "\u0120Debug": 7295, "\u0120generated": 7296, "\u0120'-": 7297, "ORDER": 7298, "wy": 7299, ">/": 7300, "posts": 7301, "\u0120\u00ea\u00b2": 7302, "\u00d0\u00b0\u00d0\u00b9": 7303, "\u0120confirm": 7304, "country": 7305, "aste": 7306, "\u0120clock": 7307, "\u0120Ensure": 7308, "\u0120Double": 7309, "\u0120dynamic": 7310, "transition": 7311, "\u0120logs": 7312, "checkbox": 7313, "\u00e6\u012a\u0133": 7314, "\u0120occur": 7315, "Rec": 7316, "~~~~~~~~": 7317, "\u0120interval": 7318, "BR": 7319, "WE": 7320, "\u0120[(": 7321, "\u0120styles": 7322, "lers": 7323, "seg": 7324, "swer": 7325, "\u0120ide": 7326, "\u0120Change": 7327, "Symbol": 7328, "\u012028": 7329, "999": 7330, "Coord": 7331, ")',": 7332, "blob": 7333, "\u00e5\u00a7\u012d": 7334, "ROUP": 7335, "Pass": 7336, "yml": 7337, "\u0120\u00ec\u0139": 7338, "clip": 7339, "Err": 7340, "GR": 7341, "Routes": 7342, "')->": 7343, "ike": 7344, "stand": 7345, "ridge": 7346, "activate": 7347, "\u00c3\u00b1": 7348, "ien": 7349, "oh": 7350, "acher": 7351, "yellow": 7352, "=\"@": 7353, "awt": 7354, "STATUS": 7355, "fragment": 7356, "\u0120dp": 7357, "theta": 7358, "typescript": 7359, "kernel": 7360, "coord": 7361, "\u0120either": 7362, "logging": 7363, "\u00d0\u0134": 7364, "\u0120many": 7365, "\u0120calcul": 7366, "\u0120Enable": 7367, "ANDARD": 7368, "syntax": 7369, "macs": 7370, "\u0120missing": 7371, "ENSE": 7372, "\u00e5\u012a\u0139": 7373, "={<": 7374, "Expect": 7375, "<'": 7376, "Gu": 7377, "wire": 7378, "\u0120Session": 7379, "Plug": 7380, "review": 7381, "scores": 7382, "\u0120embed": 7383, "\u0120Max": 7384, "\u0120\u00ec\u012d": 7385, "\u0120\u010d\u010a\u0120\u0120\u0120": 7386, "layers": 7387, "nums": 7388, "\u00e2\u0137\u0132\u00e2\u0137\u0132\u00e2\u0137\u0132\u00e2\u0137\u0132": 7389, "aler": 7390, "\u00e6\u013d\u00b4": 7391, "SM": 7392, "\u0120describe": 7393, "\u00d0\u00be\u00d0\u00b7": 7394, "\u0120attribute": 7395, "\u0120obt": 7396, "Dict": 7397, "LED": 7398, "\u00e6\u00b1\u0124": 7399, "Cost": 7400, "engine": 7401, "\u00d0\u00b0\u00d0\u00ba": 7402, "\u0120120": 7403, "resses": 7404, "maps": 7405, "\u0120region": 7406, "\u00d8\u00ac": 7407, ")</": 7408, "Cho": 7409, "forms": 7410, "\u0120asset": 7411, "\u0120origin": 7412, "ople": 7413, "BIN": 7414, "\u0120days": 7415, "linear": 7416, "kwargs": 7417, "\u0120such": 7418, "paths": 7419, "cade": 7420, "RewriteRule": 7421, "\u0120term": 7422, "radio": 7423, "\u0120Eng": 7424, "\u0130\u00b7\u00e5\u0131\u0138": 7425, "GEN": 7426, "rief": 7427, "\"):": 7428, "\u0120resources": 7429, "ATABASE": 7430, "duce": 7431, ".__": 7432, "\u0120\u0109": 7433, "attach": 7434, "\u0120Group": 7435, "RGB": 7436, "\u0120verify": 7437, "Bit": 7438, "xc": 7439, "zon": 7440, "placeholder": 7441, "tml": 7442, "ORD": 7443, "\u00e7\u00bb\u0135": 7444, "\u012026": 7445, "ture": 7446, "diction": 7447, "\u0120commun": 7448, "\u0120summary": 7449, "hide": 7450, "animation": 7451, "mag": 7452, "\u0120COM": 7453, "WHERE": 7454, "\u0120bits": 7455, "\u0120Spec": 7456, "bum": 7457, "fas": 7458, "toLowerCase": 7459, "Double": 7460, "ffffff": 7461, "\u00e7\u0142\u0123": 7462, "(\"#": 7463, "solution": 7464, "\u0120den": 7465, "\u0120Json": 7466, "RR": 7467, "\u0120once": 7468, "Off": 7469, "olver": 7470, "\u0120delta": 7471, "TRA": 7472, "\u0120fl": 7473, "emit": 7474, "\u0120unless": 7475, "\u012000": 7476, "\u0120refresh": 7477, "Argument": 7478, "\u0120country": 7479, ";;;;;;;;": 7480, "\\\":": 7481, "exception": 7482, "\u0120radius": 7483, "Make": 7484, "CLK": 7485, "viders": 7486, "\u0120numpy": 7487, "\u0120First": 7488, "\u0120testing": 7489, "ournal": 7490, "\u00e7\u00b3": 7491, "Management": 7492, "structure": 7493, "sqrt": 7494, "\u0120cla": 7495, "\u0120UPDATE": 7496, "velocity": 7497, "Sql": 7498, "\u0120Ap": 7499, "\u0120buf": 7500, "\u00e8\u0129\u00aa": 7501, "Public": 7502, "Typ": 7503, "panel": 7504, "\u00c3\u00b4": 7505, "\u00d0\u00be\u00d0\u00bb\u00d1\u012e": 7506, "\u0120ArrayList": 7507, "\u00d1\u0122\u00d1\u0125": 7508, "Recipe": 7509, "\u0120digit": 7510, "Anchor": 7511, "\u0120modifier": 7512, "\u0120\u00ec\u0125": 7513, "\u00e5\u013e\u00b0": 7514, "\u00e6\u012b\u0122": 7515, "\u00e5\u0127\u00b3": 7516, "\u0120agent": 7517, "\u0120Google": 7518, "spect": 7519, "||": 7520, "\u00ec\u0140\u0132": 7521, "\u0120letter": 7522, "sktop": 7523, "TOKEN": 7524, "%}": 7525, "\u0120cal": 7526, "\u0120branch": 7527, "ulse": 7528, ":$": 7529, "rst": 7530, "\u0120tak": 7531, "Upload": 7532, "\u00e8\u00be\u0135": 7533, "\u0120SD": 7534, "\u00e3\u0125\u00a9": 7535, "termin": 7536, "tre": 7537, "\u0120cluster": 7538, "\u0120Top": 7539, "\u0120Temp": 7540, "\u0120history": 7541, "\u00e5\u012f\u0137": 7542, "lifecycle": 7543, "Timestamp": 7544, "\u00d0\u00b0\u00d0\u00bf": 7545, "71": 7546, "City": 7547, "Payment": 7548, ")):": 7549, "\u0120ResponseEntity": 7550, "dium": 7551, "dump": 7552, "MD": 7553, "stdio": 7554, "redit": 7555, "tot": 7556, "\u0120ft": 7557, "\u0120pixel": 7558, "\u01201024": 7559, "ansport": 7560, "cogn": 7561, "Contract": 7562, "periment": 7563, "alytics": 7564, "mediate": 7565, "igr": 7566, "ATCH": 7567, "\u01202025": 7568, "allel": 7569, "warded": 7570, "\u0120sin": 7571, "\u0120Note": 7572, "\u0120visual": 7573, "chool": 7574, "nh": 7575, "nome": 7576, "UNCTION": 7577, "'d": 7578, "scene": 7579, "UTH": 7580, "\u00e3\u0123\u013b\u00e3\u0124\u012d": 7581, "]],": 7582, "\u00e5\u013d\u00be": 7583, "\u0120}:": 7584, "cing": 7585, "merge": 7586, "LY": 7587, "Pl": 7588, "\u0120power": 7589, "samples": 7590, "\u00e3\u0125\u00aa": 7591, "='#": 7592, "plt": 7593, "\u0120Variable": 7594, "QUI": 7595, "ouse": 7596, "\u0120Enum": 7597, "Cancel": 7598, "textarea": 7599, "\u010a\u0120\u0120\u0120\u0120\u0120\u0120\u0120\u0120\u0120\u0120\u0120\u0120\u0120\u0120\u0120\u0120\u0120\u0120\u0120\u0120\u0120\u0120\u0120\u0120\u0120\u0120": 7600, "odb": 7601, "mkdir": 7602, "\u00e9\u013b\u00a4": 7603, "\u0120Bool": 7604, "\u0120Address": 7605, "AX": 7606, "\u0120Menu": 7607, "ARRA": 7608, "\u0120transparent": 7609, "/)": 7610, "nth": 7611, "\u0120average": 7612, "\u0120period": 7613, "Sur": 7614, "udi": 7615, "\u00d1\u012f": 7616, "\u0120working": 7617, "IGHT": 7618, "ots": 7619, "ifi": 7620, "\u00eb\u00b2": 7621, "\u0120Reg": 7622, "\u00e4\u00b8\u0130": 7623, "Pages": 7624, "ampa": 7625, "Headers": 7626, "\u00c3\u00a8": 7627, "\u0120\u010a\u0109": 7628, "\u0120%%": 7629, "canvas": 7630, "square": 7631, "\u00e6\u00ac": 7632, "collapse": 7633, "\u0120reader": 7634, "Vo": 7635, "\u00ec\u0138": 7636, "\u0120depth": 7637, "'));": 7638, "333": 7639, "\u0120pour": 7640, "\u00e5\u0132\u00a6": 7641, "\u0120mul": 7642, "preview": 7643, "\u0120Exec": 7644, "itecture": 7645, "mes": 7646, "ARG": 7647, "tensor": 7648, "=-": 7649, "\u0120doesn": 7650, "\u0120choice": 7651, "\u00e0\u00a7": 7652, "\u0120maximum": 7653, "Attr": 7654, "\u0120Section": 7655, "Cmd": 7656, "\u00ec\u0137": 7657, "reverse": 7658, "Rem": 7659, "ANCE": 7660, "gal": 7661, "nf": 7662, "ADER": 7663, "nombre": 7664, "\u0120packages": 7665, "TY": 7666, "sha": 7667, "[],": 7668, "\u0120cannot": 7669, "rase": 7670, "\u0120*=": 7671, "Security": 7672, "disc": 7673, "\u0120setting": 7674, "Gui": 7675, "\u0120------------------------------------------------": 7676, "Dig": 7677, "\u0120NUM": 7678, "\u00e2\u0122\u013f": 7679, "sequence": 7680, "\u0120cd": 7681, "----------": 7682, "\u0120attach": 7683, "swap": 7684, "\u0120google": 7685, "\u00e4\u00bf\u00a1\u00e6\u0123\u00af": 7686, "\u0120toggle": 7687, "unce": 7688, "Addr": 7689, "vertical": 7690, "minecraft": 7691, "\u0120Field": 7692, "subnet": 7693, "helper": 7694, "Impl": 7695, "scenario": 7696, "apis": 7697, "equals": 7698, "reader": 7699, "\u0120disable": 7700, "\u00d0\u00b5\u00d0\u00bd\u00d0\u00b8\u00d1\u0131": 7701, "\u00e5\u0131\u00af\u00e4\u00bb\u00a5": 7702, "\u0120\u00d1\u0129": 7703, "PM": 7704, "ullet": 7705, "FileName": 7706, "\u0120submit": 7707, "metrics": 7708, "\u00e7\u00b3\u00bb": 7709, "BL": 7710, "writer": 7711, "forward": 7712, "\u0120):": 7713, "LES": 7714, "\u0120formData": 7715, "look": 7716, "\u0120\\<": 7717, "saved": 7718, "orth": 7719, "astro": 7720, "\u0120uuid": 7721, "\u0120\"\u00f0\u0141": 7722, "\u0120\u00e2\u012b": 7723, "\u00e5\u00bd\u0137": 7724, "ving": 7725, "\u0120know": 7726, "Term": 7727, "\u0120ev": 7728, "hl": 7729, "rics": 7730, "\u0120processing": 7731, "wik": 7732, "\u0120fail": 7733, "()}": 7734, "trace": 7735, "Hand": 7736, "pn": 7737, "pay": 7738, "\u0120tensor": 7739, "strument": 7740, "Scheme": 7741, "\u00e5\u012a\u00b6": 7742, "atter": 7743, "\u0120valor": 7744, "Fi": 7745, "illa": 7746, "Edge": 7747, "\u0120opts": 7748, "Serializer": 7749, "pb": 7750, "\u0120Person": 7751, "cluding": 7752, "\u0120actions": 7753, "\u013e\u00e2\u0136\u0122\u00e2\u0136\u0122": 7754, "\u0120\":": 7755, "Boolean": 7756, "\u0120instead": 7757, "\u0120distributed": 7758, "Binding": 7759, "pixel": 7760, "aling": 7761, "\u0120EL": 7762, "lette": 7763, "\u0120UUID": 7764, "miss": 7765, "INTER": 7766, "Documents": 7767, "Depth": 7768, "\u00e4\u00bb\u00a3": 7769, "\u0120destination": 7770, "\u010a\u0120\u0120\u0120\u0120\u0120\u0120\u0120\u0120\u0120\u0120\u0120\u0120\u0120\u0120\u0120\u0120\u0120\u0120\u0120\u0120\u0120\u0120\u0120\u0120\u0120\u0120\u0120\u0120": 7771, "setText": 7772, "\u0120Big": 7773, "\u0120borderRadius": 7774, "Balance": 7775, "IVE": 7776, "amma": 7777, "Desktop": 7778, "?)": 7779, "\u0120disc": 7780, "\u0120accept": 7781, ":{": 7782, "hpp": 7783, "\u00e6\u012a\u0138": 7784, "\u0120Right": 7785, "\u00e3\u0123\u00be": 7786, "\u0120\u00c3\u0142": 7787, "\u0120Method": 7788, "\u00ec\u00b2": 7789, "configuration": 7790, "muted": 7791, ">\";": 7792, "jor": 7793, "pis": 7794, "\u0120players": 7795, "(\".": 7796, "<%=": 7797, "Self": 7798, "peated": 7799, "\u0120expression": 7800, "%\\": 7801, "\u0120br": 7802, "\u0120times": 7803, "PACK": 7804, "selection": 7805, "\u00e6\u0131\u0132": 7806, "\u0120CUR": 7807, "\u00ec\u013f\u00b8": 7808, "Sprite": 7809, "\u0120sleep": 7810, "React": 7811, "\u0120skip": 7812, "vite": 7813, "\u00e7\u00bb\u0126": 7814, "\u0120modify": 7815, "Mes": 7816, "\u0120stock": 7817, "\u0120words": 7818, "inu": 7819, "Flow": 7820, "expand": 7821, "\u0120metrics": 7822, "Rules": 7823, "\u0120manager": 7824, "\u0120Min": 7825, "\u0120commands": 7826, "........": 7827, "\u0120rand": 7828, "Len": 7829, "dings": 7830, "\u0120Click": 7831, "\u0120outline": 7832, "CLU": 7833, "\u00e5\u0131\u00b7": 7834, "\u0120JOIN": 7835, "udy": 7836, "\u0120\u00ec\u0137": 7837, "\u0120could": 7838, "\u0120]);": 7839, "\u0120installed": 7840, "\u0120development": 7841, "\u0120shared": 7842, "LOCAL": 7843, "\u00e6\u013b": 7844, "\u0120remov": 7845, "Download": 7846, "\u0120nombre": 7847, "\u00eb\u0135\u013e": 7848, "\u010a\u010a\u0109\u0109\u0109": 7849, "agraph": 7850, "\u0120Your": 7851, "12345": 7852, "\u0120\u0120\u0120\u0120\u0120\u0120\u0120\u0120\u0120\u0120\u0120\u0120\u0120\u0120\u0120\u0120\u0120\u0120\u0120\u0120\u0120\u0120\u0120": 7853, "andas": 7854, "\u0120deleted": 7855, "\u0120vertical": 7856, "________________": 7857, "\u0120Router": 7858, "\u00ed\u013b": 7859, "\u0120Unit": 7860, "\u0120Style": 7861, "VALID": 7862, "\u0120training": 7863, "\u0120Args": 7864, "\u0120&__": 7865, ".*;": 7866, "180": 7867, "danger": 7868, "cu": 7869, "\u00ed\u0126": 7870, "CLA": 7871, "\u0120\u00d9\u0127": 7872, "rat": 7873, "\u00d1\u0122\u00d0\u00b0": 7874, "swift": 7875, "asi": 7876, "\u010a\u0120\u0120\u0120\u0120\u0120\u0120\u0120\u0120\u0120\u0120\u0120\u0120\u0120\u0120\u0120\u0120\u0120\u0120\u0120\u0120\u0120\u0120\u0120\u0120\u0120\u0120\u0120\u0120\u0120\u0120\u0120\u0120\u0120\u0120\u0120\u0120\u0120\u0120\u0120\u0120\u0120\u0120\u0120\u0120\u0120\u0120\u0120\u0120\u0120\u0120\u0120": 7877, "hip": 7878, "recipe": 7879, "binding": 7880, "rotation": 7881, "IFI": 7882, "scheme": 7883, "imulation": 7884, "jwt": 7885, "\u00e7\u013b": 7886, "\u0120Edge": 7887, "FD": 7888, "fixed": 7889, "INPUT": 7890, "\u0120timer": 7891, "\u0120sit": 7892, "\u0120Record": 7893, "Pa": 7894, "{$": 7895, "members": 7896, "asset": 7897, "Linear": 7898, "\u0120Document": 7899, "\u0120sx": 7900, "Join": 7901, "mix": 7902, "ampaign": 7903, "\u00eb\u0132": 7904, "\u0120trigger": 7905, "\u0120Insert": 7906, "\u0120verbose": 7907, "ali": 7908, "\u0120Dict": 7909, "defer": 7910, "BIT": 7911, "\u0120repo": 7912, "\u0120Given": 7913, "fb": 7914, "\u0120Can": 7915, "lua": 7916, "\u0120possible": 7917, "Cursor": 7918, "\u0120Det": 7919, "IZ": 7920, "cnt": 7921, "\u0120runtime": 7922, "ita": 7923, "blocks": 7924, "och": 7925, "\u0120dt": 7926, "encia": 7927, "Pack": 7928, "\u0120necess": 7929, "innerHTML": 7930, "Assert": 7931, "iar": 7932, "urs": 7933, "icio": 7934, "avg": 7935, "Blue": 7936, "Confirm": 7937, "\u010a\u0109\u0109\u0109\u0109\u0109\u0109\u0109\u0109\u0109\u0109": 7938, "%>": 7939, "\u0120turn": 7940, "\u0120depend": 7941, "Ter": 7942, "eries": 7943, "Some": 7944, "bn": 7945, "typedef": 7946, "']['": 7947, "thead": 7948, "\u0120utf": 7949, "lama": 7950, "\u0120stats": 7951, "SSION": 7952, "manage": 7953, "vanced": 7954, "attributes": 7955, "une": 7956, "\u0120Microsoft": 7957, "\u0120during": 7958, "\u0120week": 7959, "\u0120manage": 7960, "Camera": 7961, "(${": 7962, "WH": 7963, "!\");": 7964, ":\\\\": 7965, "\u0120\u00cf": 7966, "\u0120emp": 7967, "counts": 7968, "WR": 7969, "+\"": 7970, "\u0120\u00d1\u0126": 7971, "\u0120uses": 7972, "horizontal": 7973, "xe": 7974, "COLOR": 7975, "\u0120TIMESTAMP": 7976, "ality": 7977, "extends": 7978, "\u0120listen": 7979, "Many": 7980, "heel": 7981, "UUID": 7982, "Attributes": 7983, "\u0120Char": 7984, "\u0120Contact": 7985, "\u0120ports": 7986, "alyzer": 7987, "typeof": 7988, "Environment": 7989, "lsp": 7990, ".'": 7991, "rout": 7992, "quote": 7993, "otif": 7994, "texture": 7995, "\u0120cases": 7996, "\u0120lombok": 7997, "ighb": 7998, "{-": 7999, "\u0120article": 8000, "udit": 8001, "tc": 8002, "(`${": 8003, "ircular": 8004, "']);": 8005, "vpc": 8006, "\u00c3\u00a4": 8007, "servation": 8008, "%=": 8009, "oment": 8010, "\u0120Program": 8011, "\u0120Schema": 8012, "Errors": 8013, "\u0120big": 8014, "\u0120Title": 8015, "\u00e5\u0132\u012e": 8016, "\u0120addr": 8017, "Colors": 8018, "\u0120\"//": 8019, "ras": 8020, "LIST": 8021, "(\"[": 8022, "\u0120security": 8023, "pename": 8024, "$$": 8025, "prisma": 8026, "Sound": 8027, "\u0120half": 8028, "\u0120separ": 8029, "($_": 8030, "DR": 8031, "\u0120cos": 8032, "ignKey": 8033, "\u00e5\u00bc\u0122": 8034, "Transform": 8035, "windows": 8036, "\u00eb\u00a9": 8037, "ndef": 8038, "curr": 8039, "\u0120performance": 8040, "templates": 8041, "\u00c3\u00b5": 8042, "\u0120FILE": 8043, "parameter": 8044, "\u0120least": 8045, "\u00d8\u0143": 8046, "\u0120\u0120\u0120\u0120\u0120\u0120\u0120\u0120\u0120\u0120\u0120\u0120\u0120\u0120\u0120\u0120\u0120\u0120\u0120\u0120\u0120\u0120": 8047, "\u00e7\u00a1": 8048, "168": 8049, "vr": 8050, "\u0120\"~": 8051, "\u0120%></": 8052, "rial": 8053, "notes": 8054, "\u0120selection": 8055, "------": 8056, "\u0120Container": 8057, "]}]": 8058, "\u0120reverse": 8059, "men": 8060, "Short": 8061, "\u0120OUT": 8062, "\u0120scenario": 8063, "follow": 8064, "Inline": 8065, "apon": 8066, "\u0120attributes": 8067, "frac": 8068, "abilities": 8069, "gon": 8070, "\u0120filtered": 8071, "large": 8072, "ACTER": 8073, "8000": 8074, "TIM": 8075, "\u0120tools": 8076, "\u0120gre": 8077, "\u00d0\u00b0\u00d0\u00bb": 8078, "sumer": 8079, "\u00d9\u0125": 8080, "\u0120combin": 8081, "configure": 8082, "\u0120special": 8083, "\u0120pool": 8084, "-------------": 8085, "\u0120Step": 8086, ";</": 8087, "Your": 8088, "Lock": 8089, "special": 8090, "\u0120creating": 8091, "Opt": 8092, "\u0120seq": 8093, "hello": 8094, "\u00e0\u00b5": 8095, "ARK": 8096, "currency": 8097, "110": 8098, "Controllers": 8099, "Exist": 8100, "'re": 8101, "Selection": 8102, "channels": 8103, "Simple": 8104, "\u0120pay": 8105, "FILES": 8106, "exclude": 8107, "ARCH": 8108, "Actions": 8109, "\u0120Configuration": 8110, "\u0120mid": 8111, "Stop": 8112, "Images": 8113, "mult": 8114, "\u00e5\u00a4\u013c": 8115, "\u00d0\u00a1": 8116, "IND": 8117, "\u0120curr": 8118, "\u013d\u00e5\u00bb\u00ba": 8119, "ESC": 8120, "digit": 8121, "::<": 8122, "ached": 8123, "\u0120ui": 8124, "\u0120containing": 8125, "Employee": 8126, "\u0120zip": 8127, "\u0120candidate": 8128, "Org": 8129, "\u0120prisma": 8130, "MIT": 8131, "ratio": 8132, "\u0120LI": 8133, "LP": 8134, "\u0120camera": 8135, "\u0120\u0120\u0120\u0120\u0120\u0120\u0120\u0120\u0120\u0120\u0120\u0120\u0120\u0120\u0120\u0120\u0120\u0120\u0120\u0120\u0120\u0120\u0120\u0120": 8136, "\u0120rs": 8137, "HP": 8138, "Multip": 8139, "]).": 8140, "flags": 8141, "multi": 8142, "\u00eb\u00a7": 8143, "venue": 8144, "\u00e6\u013f\u00a5": 8145, "Clear": 8146, "\u0120seed": 8147, "Secret": 8148, "\u010d\u010a\u0120\u0120\u0120\u0120\u0120\u0120\u0120\u0120\u010d\u010a\u0120\u0120\u0120\u0120\u0120\u0120\u0120": 8149, "Diff": 8150, "Power": 8151, "Prefix": 8152, "lm": 8153, "\u00e6\u0126": 8154, "Constructor": 8155, "ctors": 8156, "TextField": 8157, "\u0120=~": 8158, "ONT": 8159, "NV": 8160, "Syn": 8161, "your": 8162, "\u0120pick": 8163, "Dropdown": 8164, "\u0120forward": 8165, "SIGN": 8166, "\u0120did": 8167, "\u00d0\u013f": 8168, "eff": 8169, "\u0120{<": 8170, "\u0120inc": 8171, "Condition": 8172, "ENABLE": 8173, "}/${": 8174, "\u0120objects": 8175, "\u0120Settings": 8176, "\u0120standard": 8177, "Extra": 8178, "REM": 8179, "ymbols": 8180, "\u0120Module": 8181, "\u0120selector": 8182, "antic": 8183, "staurant": 8184, "\u00c3\u00b5es": 8185, "\u0120tail": 8186, "rounded": 8187, "\u0120secret": 8188, "achine": 8189, "publish": 8190, "\u00d1\u0122\u00d0\u00be\u00d0\u00b2": 8191, "!\")": 8192, "rink": 8193, "\u0120und": 8194, "\u0120\"__": 8195, "}}</": 8196, "reduce": 8197, "\u0120Files": 8198, "\u0120trim": 8199, "\u0120intent": 8200, "+=": 8201, "\u0120Auto": 8202, "actor": 8203, "ression": 8204, "purple": 8205, "NECT": 8206, "\u0120che": 8207, "\u0120cn": 8208, "ases": 8209, "\u0120finally": 8210, "Family": 8211, "\u0120usage": 8212, "books": 8213, "\u00d0\u00b5\u00d0\u00bd\u00d1\u0124": 8214, "\u00eb\u0131\u0126": 8215, "orange": 8216, "\u0120Fa": 8217, "\u00ec\u0125": 8218, "esome": 8219, "prevent": 8220, "\u00e7\u00bb\u0141": 8221, "hing": 8222, "\u00e6\u013e\u012f": 8223, "parts": 8224, "social": 8225, "\u0120trunc": 8226, "\u00d0\u00bd\u00d0\u00b8": 8227, "modif": 8228, "GER": 8229, "]):": 8230, "xd": 8231, "\u0120todo": 8232, "\u0120Ref": 8233, "inputs": 8234, "based": 8235, "Quantity": 8236, "\u00e5\u0127\u00a8": 8237, "itoring": 8238, "defn": 8239, "Delay": 8240, "\u0120\u00d0\u00bf\u00d0\u00be": 8241, "RESULT": 8242, "EST": 8243, "MT": 8244, "\u00d1\u0123\u00d1\u0124\u00d0\u00b2": 8245, "\u0120merge": 8246, "beta": 8247, "\u0120win": 8248, "(\"\");": 8249, "apture": 8250, "LM": 8251, "rum": 8252, "\u0120.{": 8253, "Pair": 8254, "[(": 8255, "\u0120\"\u00e2": 8256, "ifndef": 8257, "ipment": 8258, "ks": 8259, "eros": 8260, "sprite": 8261, "Origin": 8262, "VALUES": 8263, "CLIENT": 8264, "learn": 8265, "formData": 8266, "\u0120RET": 8267, "=<": 8268, "\u00e5\u00a5": 8269, "lies": 8270, "\u0120AR": 8271, "\u0120BO": 8272, "\u00e6\u0122\u0123": 8273, "\u0120factor": 8274, "[_": 8275, "\u0120utils": 8276, "ners": 8277, "endpoint": 8278, "Reset": 8279, "Bearer": 8280, "jpa": 8281, "pace": 8282, "Include": 8283, "\u0120Down": 8284, "cancel": 8285, "xb": 8286, "\u0120Sk": 8287, "\u0120\u00ec\u0124\u00ac": 8288, "Slice": 8289, "\u0120dispatch": 8290, ":+": 8291, "\u0120sudo": 8292, "upgrade": 8293, "selector": 8294, "Lines": 8295, "har": 8296, "\u0120vehicle": 8297, "\u0120Port": 8298, "arta": 8299, ":\")": 8300, "distrib": 8301, "lists": 8302, "\u0120animate": 8303, "\u0120CG": 8304, "general": 8305, "cesses": 8306, "}[": 8307, "\u00e9\u0127\u012f\u00e7\u00bd\u00ae": 8308, "ety": 8309, "CRET": 8310, "Delegate": 8311, "\u00d0\u00b0\u00d0\u00b7": 8312, "Da": 8313, "\u0120vs": 8314, "\u00e2\u0136\u0124": 8315, "prepare": 8316, "Health": 8317, "\u00b5\u00ac": 8318, "\u0120pag": 8319, "uf": 8320, "definition": 8321, "Arr": 8322, "ambda": 8323, "regex": 8324, "spital": 8325, "\u0120hour": 8326, "acer": 8327, "...\")": 8328, "\u00d0\u00b5\u00d0\u00b9": 8329, "\u0120projects": 8330, "slide": 8331, "\u0120grep": 8332, "\u0120views": 8333, "generator": 8334, "\u0120Found": 8335, "Stock": 8336, "sess": 8337, "\u0120isinstance": 8338, "\u0120documentation": 8339, "\u0120ms": 8340, "\u0120experience": 8341, "afe": 8342, "EQ": 8343, "RESS": 8344, "\u0120canvas": 8345, "pcion": 8346, "Ap": 8347, "\\+": 8348, "liance": 8349, "0000000": 8350, "mq": 8351, "\u0120\"(": 8352, "Fn": 8353, "peg": 8354, "\u0120sec": 8355, "\u0120ty": 8356, "\u0120rules": 8357, "okemon": 8358, "\u0120additional": 8359, "\u0120Unity": 8360, "\u00e9\u0138": 8361, "\u0120Fo": 8362, "\u0120Material": 8363, "Ret": 8364, "\u01202023": 8365, "\u0120Over": 8366, "\u0120being": 8367, "Messages": 8368, "BuildRequires": 8369, "\u00e5\u00b9\u00b6": 8370, "\u0120CASCADE": 8371, "cpy": 8372, "keyword": 8373, "'\"": 8374, "Acc": 8375, "Loop": 8376, "\u0120Context": 8377, "\u0120CONFIG": 8378, "\u0120puts": 8379, "\u00e6\u0125\u0127": 8380, "\u0120Bl": 8381, "week": 8382, "\u0120guard": 8383, "\u0120repeat": 8384, "BY": 8385, "\u0120employee": 8386, "\u0120otherwise": 8387, "det": 8388, "\u00eb\u00b0": 8389, "ViewController": 8390, "Rows": 8391, "ods": 8392, "uses": 8393, "increment": 8394, "\u0120multi": 8395, "\u0120constant": 8396, "Expression": 8397, "\u0120Design": 8398, "\u0120automatic": 8399, "sd": 8400, "vendor": 8401, "asing": 8402, "\u0120\u00d0\u00b0": 8403, "\u0120associ": 8404, "Subject": 8405, "\u00e6\u012e\u0129": 8406, "tick": 8407, "\u00e7\u0130\u00b0": 8408, "factory": 8409, "\u0120\u00f0\u0141\u0135": 8410, "Fragment": 8411, "Supp": 8412, "About": 8413, "}$": 8414, "\u010d\u010a\u0120\u0120\u0120\u0120\u0120\u0120\u0120\u0120\u0120\u0120\u0120\u0120\u0120\u0120\u0120\u0120\u0120\u0120\u0120\u0120\u0120\u0120\u0120\u0120\u0120\u0120\u0120\u0120\u0120\u0120\u0120": 8415, "Console": 8416, "\u0120cancel": 8417, "\u0120Ret": 8418, "afka": 8419, "?(": 8420, "tur": 8421, "xa": 8422, "omb": 8423, "\u00e5\u0131\u0124": 8424, "BACK": 8425, "\u0120Profile": 8426, "VEL": 8427, "\u00e9\u0129\u012f": 8428, "Icons": 8429, "road": 8430, "\u00e7\u00b1\u00bb\u00e5\u0140\u012d": 8431, "'):": 8432, "5000": 8433, "\u0120shell": 8434, "Java": 8435, "\u0120rule": 8436, "acade": 8437, "\u0120chart": 8438, "UTE": 8439, "servable": 8440, "\u00e6\u0143\u00a3": 8441, "}`;": 8442, "alyze": 8443, "hw": 8444, "iece": 8445, "kes": 8446, "\u0120pb": 8447, "ipes": 8448, "\u0120credentials": 8449, "verity": 8450, "Shell": 8451, "UPDATE": 8452, "\u0120integr": 8453, "Free": 8454, "=\"-": 8455, "\u0120Tag": 8456, "igrations": 8457, "gits": 8458, "\u0120angle": 8459, "aring": 8460, "cards": 8461, "\u0120*.": 8462, "Toast": 8463, "\u00e6\u013a\u00af\u00e5\u0132\u00a6": 8464, "ForegroundColor": 8465, "virtual": 8466, "\u00ed\u0126\u00b0": 8467, "Optional": 8468, "\u0120BEGIN": 8469, "\u00d0\u00b5\u00d1\u0123": 8470, "extract": 8471, "\u00e3\u0123\u0141": 8472, "************************************************************************": 8473, "Flags": 8474, "xff": 8475, "anded": 8476, "\u0120Lib": 8477, "\u012048": 8478, "\u00e5\u0131\u013a": 8479, "Kind": 8480, "contrib": 8481, "exports": 8482, "xFF": 8483, "Exit": 8484, "!=": 8485, "dy": 8486, "pic": 8487, "\u0120crate": 8488, "\u0120{};": 8489, "\u0120since": 8490, "dirname": 8491, "Have": 8492, "celer": 8493, "\u00e3\u0123\u012d": 8494, "bon": 8495, "brief": 8496, "pret": 8497, "\u0120Control": 8498, "VALUE": 8499, "Pressed": 8500, "\u00e2\u0123": 8501, "thumb": 8502, "\u0120less": 8503, "\u0120td": 8504, "\u0120definition": 8505, "\u0120700": 8506, "\u00e7\u00ac\u00a6": 8507, "OBJ": 8508, "GUI": 8509, "best": 8510, "\u0120problem": 8511, "ORY": 8512, "\u0120blue": 8513, "\u0120expr": 8514, "\u0120enumerate": 8515, "\u0120protocol": 8516, "\u0120ts": 8517, "\u0120Api": 8518, "\u0120avg": 8519, "ech": 8520, "\u0120Network": 8521, "\u0120Row": 8522, "\u010d\u010a\u0120\u0120\u0120\u0120\u0120\u0120\u0120\u0120\u0120\u0120\u0120\u0120\u0120\u0120\u0120\u0120\u0120": 8523, "\u0120browser": 8524, "chie": 8525, "\u0120attr": 8526, "Pe": 8527, "\u0120Cl": 8528, "UMN": 8529, "\u010d\u010a\u0120\u0120\u0120\u0120\u0120\u0120\u0120\u0120\u0120\u0120\u0120\u0120": 8530, "\u0120-%}": 8531, "Bundle": 8532, "\u00e9\u013d": 8533, "\u0120inherit": 8534, "\u0120Linux": 8535, "phi": 8536, "Using": 8537, "\u0120normalize": 8538, "@@@@": 8539, "browser": 8540, "getItem": 8541, "kg": 8542, "wall": 8543, "\u0120Source": 8544, "\u0120minimum": 8545, "\u00e8\u0122\u0127": 8546, "pd": 8547, "logout": 8548, "\u0120activity": 8549, "\u0120successful": 8550, "\u00c5\u0124": 8551, "Factor": 8552, "\u0120Host": 8553, "markdown": 8554, "\u00e5\u00b0\u0131": 8555, "Abs": 8556, "Uri": 8557, "192": 8558, "argv": 8559, "lastic": 8560, "\u0120(\\": 8561, "mapping": 8562, "\u0120mr": 8563, "letter": 8564, "DataFrame": 8565, "IMAGE": 8566, "\u0120wrap": 8567, "\u0120PO": 8568, "poly": 8569, "ktx": 8570, "two": 8571, "\u0120Public": 8572, "\u0120prob": 8573, "sources": 8574, "Authentication": 8575, "Shadow": 8576, "\u0120nome": 8577, "transparent": 8578, "\u0120cr": 8579, "\u0120$$": 8580, "Encoder": 8581, "slider": 8582, "LIN": 8583, "ences": 8584, "\u0120updatedAt": 8585, "\u0120WITH": 8586, "Cent": 8587, "kubernetes": 8588, "\u0120\u00d1\u0123\u00d1\u0124": 8589, "cycle": 8590, "redirect": 8591, "\u010a\u010a\u010a\u0120\u0120\u0120\u0120\u0120\u0120\u0120": 8592, "\u010a\u010a\u010a\u0120": 8593, "\u0120rank": 8594, "AF": 8595, "\u00c4\u0141": 8596, "Insets": 8597, "velte": 8598, "\u0120stored": 8599, "^^^^": 8600, "\u0120latest": 8601, "Pane": 8602, "\u0120Filter": 8603, "=\"./": 8604, "textContent": 8605, "TOP": 8606, "supp": 8607, "\u0120Connection": 8608, "graphics": 8609, "atomic": 8610, "\u0120ANY": 8611, "Tests": 8612, "mic": 8613, "licen": 8614, "icles": 8615, "iam": 8616, "\u0120\">": 8617, "\u0120engine": 8618, "\u0120lista": 8619, "\u0120INDEX": 8620, "=['": 8621, "\u00e9\u0125": 8622, "\u0120@\"": 8623, "Contains": 8624, "libraries": 8625, "\u0120(.": 8626, "Stat": 8627, "DAO": 8628, "\u00e8\u00bf\u0136": 8629, "jdbc": 8630, "setting": 8631, "icipant": 8632, "\u0120With": 8633, "ARN": 8634, "\u0120YY": 8635, "Before": 8636, "ares": 8637, "SCRI": 8638, "filled": 8639, "Operation": 8640, "\u00eb\u0124": 8641, "male": 8642, "ipher": 8643, "\u0120cics": 8644, "\u0120Exp": 8645, "chars": 8646, "=>": 8647, "mis": 8648, "Ind": 8649, "\u0120usuario": 8650, "\u00e7\u0143\u012b": 8651, "Eq": 8652, "IX": 8653, "Available": 8654, "iation": 8655, "writ": 8656, "\u0120got": 8657, "\u00e5\u0123": 8658, "schedule": 8659, "\u0120Qt": 8660, "\u00ec\u013e\u00bc": 8661, ">()": 8662, "candidate": 8663, "pressed": 8664, "\u0120----------------": 8665, "\u0120Cre": 8666, "\u0120Deta": 8667, "ONY": 8668, "\u0120men": 8669, "ipient": 8670, "news": 8671, "describe": 8672, "=\"{": 8673, "\u0120vo": 8674, "bp": 8675, "\u00e7\u00a9": 8676, "uby": 8677, "FilePath": 8678, "\u0120{}\",": 8679, "Dispatch": 8680, "/',": 8681, "]*": 8682, "ousel": 8683, "\u00e6\u013e\u012f\u00e5\u012c\u00a1": 8684, "\u0120SO": 8685, "\u0120routes": 8686, "Forms": 8687, "eg": 8688, "\u0120fit": 8689, "IQUE": 8690, "actual": 8691, "okies": 8692, "tempt": 8693, "depend": 8694, "\u0120sync": 8695, "Prod": 8696, "cyc": 8697, "\u00e4\u00bd\u0135": 8698, "Generate": 8699, "\u00e6\u00b5\u012d": 8700, "\u0120$@": 8701, "3333": 8702, "authorized": 8703, "\u00e3\u0124\u00a2": 8704, "Arch": 8705, "hour": 8706, "\u00e8\u00b0": 8707, "adas": 8708, "outube": 8709, "\u0120Block": 8710, "\u0120built": 8711, "\u0120PACK": 8712, "createElement": 8713, "\u0120permissions": 8714, "\u00b6\u012a": 8715, "sell": 8716, "\u0120policy": 8717, "ulate": 8718, "\u0120Stream": 8719, "\u00ec\u013f\u00bc": 8720, "legend": 8721, "mployees": 8722, "Basic": 8723, "coin": 8724, "\u0120Position": 8725, "tries": 8726, "Ma": 8727, "coords": 8728, "\u0120hold": 8729, "\u00e5\u013e\u00ba": 8730, "111": 8731, "Movie": 8732, "wallet": 8733, "numeric": 8734, "fp": 8735, "\u00e6\u00a1": 8736, "\u0120pin": 8737, "\u0120Setup": 8738, "deb": 8739, "processing": 8740, "\u0120\u00d0\u00be\u00d1\u0124": 8741, "\u00e5\u00be\u0139": 8742, "\u0120etc": 8743, "numbers": 8744, "weights": 8745, "mx": 8746, "\u00c6\u00b0": 8747, "\u0120tk": 8748, "\u0120decimal": 8749, "\u0120'%": 8750, "agg": 8751, "\u00e2\u0141": 8752, "Req": 8753, "Trace": 8754, "dynamic": 8755, "\u0120plus": 8756, "\u0120highlight": 8757, "UCCESS": 8758, ":@\"": 8759, "Fire": 8760, "Split": 8761, "Bool": 8762, "MPLE": 8763, "/(": 8764, "enda": 8765, "Cons": 8766, "ucation": 8767, "\u0120mp": 8768, "\u0120\u00d8\u00a8": 8769, "TIMESTAMP": 8770, "ifdef": 8771, "\u0120rating": 8772, "\u0120Border": 8773, "LAY": 8774, "\u0120orders": 8775, "\u012031": 8776, "subscription": 8777, "BE": 8778, "icing": 8779, "\u0120inner": 8780, "\u0120Env": 8781, "\u00e6\u0142\u00bc": 8782, "\u00e7\u00ae\u00a1": 8783, "\u0120leg": 8784, "registry": 8785, "Static": 8786, "keymap": 8787, "heduler": 8788, "\u0120\u00e0\u00a6": 8789, "\u0120lin": 8790, ":[": 8791, "\u0120@@": 8792, "partial": 8793, "\u0120parts": 8794, "entries": 8795, "acao": 8796, "\u0120passed": 8797, "Elem": 8798, "\u00a3\u0122": 8799, "phase": 8800, "\u0120notes": 8801, "poch": 8802, "\u0120Current": 8803, "\u00e9\u00a2\u013a": 8804, "\u0120txt": 8805, "Single": 8806, "isation": 8807, "textbf": 8808, "\u00d0\u00b0\u00d0\u00bc": 8809, "\u0120Call": 8810, "jsx": 8811, "udget": 8812, "Answer": 8813, "finite": 8814, "brew": 8815, "Course": 8816, "\u0120Cur": 8817, "\u0120Oper": 8818, "\u00d0\u00b0\u00d0\u00b5\u00d0\u00bc": 8819, "\u0120Total": 8820, "previous": 8821, "!]": 8822, "\u0120exact": 8823, "\u0120exception": 8824, "\u0120compute": 8825, "checked": 8826, "operator": 8827, "\u0120material": 8828, "justify": 8829, "protocol": 8830, "\u0120until": 8831, "\u0120}).": 8832, "except": 8833, "\u0120\u0120\u0120\u0120\u0120\u0120\u0120\u0120\u0120\u0120\u0120\u0120\u0120\u0120\u0120\u0120\u0120\u0120\u0120\u0120\u0120": 8834, "scss": 8835, "\u0120\\(": 8836, "\u0120completion": 8837, "\u0120indent": 8838, "tl": 8839, "\u0120patch": 8840, "\u0120CURRENT": 8841, "a\u00c3\u00a7\u00c3\u00a3o": 8842, "\u0120yield": 8843, "\u00d0\u00be\u00d0\u00b3\u00d0\u00be": 8844, "avorite": 8845, "NU": 8846, "\u00e5\u00a4\u0126": 8847, "\u010a\u0120\u0120\u0120\u0120\u0120\u0120\u0120\u0120\u0120\u0120\u0120\u0120\u0120\u0120\u0120\u0120\u0120\u0120\u0120\u0120\u0120\u0120\u0120\u0120\u0120\u0120\u0120\u0120\u0120\u0120\u0120\u0120\u0120\u0120\u0120\u0120\u0120\u0120\u0120\u0120\u0120\u0120\u0120\u0120\u0120\u0120\u0120\u0120\u0120\u0120\u0120\u0120\u0120\u0120\u0120": 8848, "\u0120eval": 8849, "\u0120widget": 8850, "onsive": 8851, "\u0120).": 8852, "\u0120Success": 8853, "==\"": 8854, "Called": 8855, "DROP": 8856, "completed": 8857, "\u00d0\u00be\u00d0\u00b6": 8858, "\u00e5\u012c\u013d": 8859, "\u00e5\u00bd\u0135": 8860, "ersistence": 8861, "wm": 8862, "\u0120pi": 8863, "\u0120modal": 8864, "\u0120Cart": 8865, "\u0120kind": 8866, "pow": 8867, "\u0120128": 8868, "usage": 8869, "\u0120vi": 8870, "\u0120CSS": 8871, "foo": 8872, "FFER": 8873, "nnoremap": 8874, "wybor": 8875, "Runtime": 8876, "quis": 8877, "\u0120\u00ec\u012a\u013a": 8878, "\u0120Common": 8879, "dst": 8880, "strings": 8881, "hold": 8882, "icode": 8883, "archive": 8884, "predict": 8885, "Complete": 8886, "Fill": 8887, "\u0120weights": 8888, "ForeignKey": 8889, "ands": 8890, "\u0120another": 8891, "SECRET": 8892, "\u0120\u00e2\u0126": 8893, "(%": 8894, "/'": 8895, "extern": 8896, "\u0120Scenario": 8897, "stone": 8898, "\\[": 8899, "\u0120review": 8900, "\u0120basic": 8901, "Prompt": 8902, "\u0120xy": 8903, "\u00d0\u00b5\u00d0\u00bb": 8904, "\u0120esc": 8905, "axios": 8906, "!\",": 8907, "/\",": 8908, "bine": 8909, "cross": 8910, "dv": 8911, "-----------": 8912, "\u0120website": 8913, "\u0120minutes": 8914, "\u0120topic": 8915, "_;": 8916, "\u00e4\u00bd\u0142": 8917, "Pay": 8918, "MAP": 8919, "opts": 8920, "\u0120Access": 8921, "SUB": 8922, "\u0120SY": 8923, "\u0120were": 8924, "zeros": 8925, "\u0120tracking": 8926, "contain": 8927, "overlay": 8928, "marks": 8929, "\u0120obtain": 8930, "GT": 8931, "//!": 8932, "epoch": 8933, "CMake": 8934, "\u0120\u00d1\u0122": 8935, "\u0120movie": 8936, "\u0120kernel": 8937, "WW": 8938, "\u00e9\u0137": 8939, "\u00eb\u00aa": 8940, "\u0120Wait": 8941, "dian": 8942, "\u00e5\u0127\u00b6": 8943, "ki": 8944, "\u0120sound": 8945, "aman": 8946, "mbed": 8947, "dn": 8948, "Strategy": 8949, "gers": 8950, "\u00e0\u00b6": 8951, "\u00e8\u00a3": 8952, "rev": 8953, "\u0120endblock": 8954, "Footer": 8955, "\u0120Employee": 8956, "PRI": 8957, "VARCHAR": 8958, "half": 8959, "MOS": 8960, "<{": 8961, "xel": 8962, "\u00d1\u0124\u00d0\u00b8": 8963, "\u0120***": 8964, "hooks": 8965, "CLUDE": 8966, "Locale": 8967, "\u00ef\u00bf\u00bd\u00ef\u00bf\u00bd": 8968, "iterator": 8969, "caption": 8970, "\u0120relation": 8971, "\u0120leading": 8972, "\u0120mac": 8973, "\u00e8\u012b": 8974, "analysis": 8975, "RET": 8976, "Updated": 8977, "arison": 8978, "\u0120jwt": 8979, "backup": 8980, "calculate": 8981, "\u0120migration": 8982, "COMM": 8983, "\u0120Art": 8984, "\u00e9\u0125\u00a8": 8985, "\u0120threshold": 8986, "\u0120How": 8987, "\u0120las": 8988, "\u0120swap": 8989, "\u00ea\u00b3\u0142": 8990, "prob": 8991, "\u0120hex": 8992, "urls": 8993, "redis": 8994, "uel": 8995, "Usage": 8996, "\u00e1\u00ba\u00a3": 8997, "Dashboard": 8998, "\u0120extension": 8999, "\u00e6\u0139\u00a5": 9000, "When": 9001, "here": 9002, "\u0120writer": 9003, "scala": 9004, "StatusCode": 9005, "\u00e5\u00ae\u00b9": 9006, "trust": 9007, "\u0120energy": 9008, "dirs": 9009, "ickness": 9010, "mesh": 9011, "\u0120restart": 9012, "ERO": 9013, "\u0120ValueError": 9014, "lx": 9015, "abc": 9016, "(:,": 9017, "!,": 9018, "patient": 9019, "\u0120recipe": 9020, "\u012034": 9021, "CG": 9022, "izza": 9023, "aming": 9024, "('#": 9025, "\u0120Location": 9026, "\u0120\u00eb\u00b3": 9027, "\u0120statement": 9028, "\u010a\u0120\u0120\u0120\u0120\u0120\u0120\u0120\u0120\u0120\u0120\u0120\u0120\u010a\u0120\u0120\u0120\u0120\u0120\u0120\u0120": 9029, "PK": 9030, "\u0120\u00e0\u00a4": 9031, "uess": 9032, "Modif": 9033, "Booking": 9034, "pick": 9035, "],[": 9036, "############": 9037, "AxisAlignment": 9038, "\u0120cod": 9039, "izedBox": 9040, "dividual": 9041, "neg": 9042, "MAIN": 9043, "ipt": 9044, "\u0120Red": 9045, "\u0120lock": 9046, "istor": 9047, "\u0120\u00e2\u0141": 9048, "CONT": 9049, "iro": 9050, "\u00e7\u012c": 9051, "\u0120\"$(": 9052, "\u0120parsed": 9053, "Typography": 9054, "HR": 9055, "bio": 9056, "idr": 9057, "grams": 9058, "amento": 9059, "ission": 9060, "respon": 9061, "RIGHT": 9062, "Navigate": 9063, "gif": 9064, "\u0120repeated": 9065, "MenuItem": 9066, "iment": 9067, "\u0120Logger": 9068, "connected": 9069, "\u00e8\u00ae\u00be\u00e7\u00bd\u00ae": 9070, "199": 9071, "nail": 9072, "\u0120</>": 9073, "training": 9074, "TAG": 9075, "shal": 9076, "\u010a\u0120\u0120\u0120\u0120\u0120\u0120\u0120\u0120\u0120\u0120\u0120\u0120\u0120\u0120\u0120\u0120\u0120\u0120\u0120\u0120\u0120\u0120\u0120\u0120\u0120\u0120\u0120\u0120\u0120\u0120\u0120\u0120\u0120\u0120\u0120\u0120\u0120": 9077, "Chain": 9078, "\u0120/>}": 9079, "forecast": 9080, "NSString": 9081, "\u0120MessageBox": 9082, "atis": 9083, "\u0120_)": 9084, "\u0120force": 9085, "\u0120visible": 9086, "\u0120handling": 9087, "\u0120mkdir": 9088, "sizeof": 9089, "\u00e4\u00b8\u00bb": 9090, "\u0120kotlin": 9091, "\u0120reason": 9092, "goal": 9093, "\u00ec\u0138\u00b4": 9094, "Two": 9095, "worker": 9096, "Running": 9097, "PG": 9098, "Sleep": 9099, "ione": 9100, "Angle": 9101, "illi": 9102, "\u0120detail": 9103, "posal": 9104, "dotenv": 9105, "\u00e6\u012e\u0123": 9106, "(\"<": 9107, "\u0120onclick": 9108, "\u00e5\u012c\u0141": 9109, "\u0120fetching": 9110, "\u00e2\u0136\u0122\u00e2\u0136\u0122\u00e2\u0136\u0122\u00e2\u0136\u0122\u00e2\u0136\u0122\u00e2\u0136\u0122\u00e2\u0136\u0122\u00e2\u0136\u0122\u00e2\u0136\u0122\u00e2\u0136\u0122\u00e2\u0136\u0122\u00e2\u0136\u0122\u00e2\u0136\u0122\u00e2\u0136\u0122\u00e2\u0136\u0122\u00e2\u0136\u0122": 9111, "nestjs": 9112, "\u0120flow": 9113, "spot": 9114, "=\"../": 9115, "verify": 9116, "resize": 9117, "\u0120Random": 9118, "\u0120better": 9119, "extend": 9120, "\u0120CSV": 9121, "DEP": 9122, "cases": 9123, "Prev": 9124, "\u0120slug": 9125, "\u00d1\u0123\u00d1\u0131": 9126, "\u0120Edit": 9127, "\u0120\u00d0\u0134": 9128, "125": 9129, "otos": 9130, "Stage": 9131, "\u0120quant": 9132, "don": 9133, "\u0120Future": 9134, "comments": 9135, "Asp": 9136, "_(": 9137, "bundle": 9138, "ledge": 9139, "Clock": 9140, "Esc": 9141, "Scan": 9142, "Mail": 9143, "007": 9144, "Dev": 9145, "\u0120complex": 9146, "Objects": 9147, "\u00e5\u00b0\u00b1": 9148, "#'": 9149, "ASS": 9150, "methe": 9151, "\u0120\u00e2\u013e\u0127": 9152, "jpeg": 9153, "ascade": 9154, "\u00e5\u00a4\u00b1": 9155, "assertEqual": 9156, "ya": 9157, "\u0120Light": 9158, "\u0120postgres": 9159, "Primary": 9160, "Warning": 9161, "lr": 9162, "surface": 9163, "atur": 9164, "\u0120SV": 9165, "Fetch": 9166, "Tx": 9167, "accept": 9168, "\u00e5\u0135\u0123": 9169, "\u0120datos": 9170, "Pag": 9171, "hest": 9172, "\u0120identifier": 9173, "Mer": 9174, "\u0120Cor": 9175, "\u0120+#+": 9176, "\u0120+:+": 9177, "fail": 9178, "\u00e9\u00ab": 9179, "ano": 9180, "\u0120'\"": 9181, "\u0120booking": 9182, ":`": 9183, "VECTOR": 9184, "laims": 9185, "\u00e3\u0125\u0129": 9186, "\u010a\u0109\u0109\u0109\u0109\u0109\u0109\u0109\u0109\u0109": 9187, "metheus": 9188, "sf": 9189, "\u0120Global": 9190, "matches": 9191, "\u00ed\u0137\u00b4": 9192, "\u0120Windows": 9193, "iate": 9194, "Review": 9195, "Activ": 9196, "\u0120goal": 9197, "Permission": 9198, "\u00e1\u00ba\u00a1": 9199, "\u0120Active": 9200, "IV": 9201, "gradle": 9202, "\u00e7\u00ba\u00bf": 9203, "\u0120inside": 9204, "\u0120\u00d0\u00a1": 9205, "preventDefault": 9206, "\u0120patient": 9207, "lax": 9208, "\u0120Mode": 9209, "pause": 9210, "Projects": 9211, "\u0120\u00d0\u00be\u00d0\u00b1": 9212, "Rest": 9213, "\u0120PACKAGE": 9214, "\u00e7\u012c\u00b6": 9215, "\u00e6\u0135": 9216, "onto": 9217, "\u0120Target": 9218, "\u0120writing": 9219, "NER": 9220, "\u00ec\u013d": 9221, "\u00ed\u013a": 9222, "requires": 9223, "\u0120categories": 9224, "\u0120CL": 9225, "\u00e3\u0123\u00a6": 9226, "ensure": 9227, ";;;": 9228, "Visual": 9229, "\u0120Simple": 9230, "\u0120hours": 9231, "DEF": 9232, "\u0120allowed": 9233, "Sprintf": 9234, "\u0120SizedBox": 9235, "ERC": 9236, "\u00d0\u00b0\u00d1\u0124\u00d1\u012e": 9237, "PHONY": 9238, "lst": 9239, "laint": 9240, "\u00e4\u00ba\u012d": 9241, "%.": 9242, "\u0120dx": 9243, "ardware": 9244, "\u0120subscription": 9245, "\u00ec\u013f\u0122": 9246, "cin": 9247, "macro": 9248, "itespace": 9249, "desktop": 9250, "\u0120later": 9251, "trigger": 9252, "\u00ec\u013c\u0136": 9253, "\u0120mongoose": 9254, "\u012027": 9255, "\u0120Dist": 9256, "\u0120starting": 9257, "\u0120publish": 9258, "ANT": 9259, "Rating": 9260, "qa": 9261, "external": 9262, "\u0120Reset": 9263, "ongodb": 9264, "\u0120contents": 9265, "}=": 9266, "icion": 9267, "hem": 9268, "\u00e9\u0139\u00ae": 9269, "\u0120Struct": 9270, "Er": 9271, "Middleware": 9272, "aux": 9273, "dependency": 9274, "\u012036": 9275, "AST": 9276, "\u0120frag": 9277, "\u0120sy": 9278, "avatar": 9279, "parator": 9280, "Resp": 9281, "Subscription": 9282, "\u0120needs": 9283, "}${": 9284, "coming": 9285, "\u0120learning": 9286, "Labels": 9287, "\u0120sal": 9288, "\u0120'')": 9289, "uplicate": 9290, "kms": 9291, "\u0120circle": 9292, "\u0120large": 9293, "existing": 9294, "NEXT": 9295, "identifier": 9296, "\")))": 9297, "Supported": 9298, "wp": 9299, "\u0120well": 9300, "\u0120404": 9301, "filters": 9302, "CURRENT": 9303, "implementation": 9304, "\u0136\u0126": 9305, "\u0120Fin": 9306, "ested": 9307, "micro": 9308, "Help": 9309, "allenge": 9310, "\u0120warn": 9311, "\u0120setError": 9312, "\u0120Users": 9313, "Final": 9314, "\u0120perform": 9315, "icture": 9316, "calc": 9317, "\u0120yang": 9318, "Spring": 9319, "Meta": 9320, "SHA": 9321, "-------": 9322, "\u0120Verify": 9323, "clo": 9324, "covery": 9325, "proj": 9326, "\u00c3\u00a7\u00c3\u00b5es": 9327, "birth": 9328, "/\\": 9329, "\u0120GL": 9330, "\u0120hy": 9331, "\u0120prop": 9332, "see": 9333, "\u0120Ent": 9334, "\u0120workspace": 9335, ";\"": 9336, "\u010a\u0120\u0120\u0120\u0120\u0120\u0120\u0120\u0120\u0120\u0120\u0120\u0120\u0120\u0120\u0120\u0120\u0120\u0120\u0120\u0120\u0120\u0120\u0120\u0120\u0120\u0120\u0120\u0120\u0120\u0120\u0120\u0120\u0120\u0120\u0120\u0120\u0120\u0120\u0120\u0120\u0120\u0120\u0120\u0120\u0120\u0120\u0120\u0120\u0120\u0120\u0120\u0120\u0120\u0120\u0120\u0120\u0120\u0120\u0120\u0120\u0120\u0120\u0120\u0120": 9337, "\u0120links": 9338, "IB": 9339, "]$": 9340, "}),": 9341, "\u0120slot": 9342, "izations": 9343, "\u0120Left": 9344, "\u0120receive": 9345, ",<": 9346, "\u00e9\u013c": 9347, "\u00e6\u013e\u00ba": 9348, "Circle": 9349, "\u0120Widget": 9350, "more": 9351, "ann": 9352, "STATE": 9353, "\u0120operations": 9354, "DULE": 9355, "\"\\": 9356, "wk": 9357, "ongs": 9358, "\u0120wallet": 9359, "LENG": 9360, "\u0120typing": 9361, "\u00d1\u012a\u00d0\u00b8": 9362, "\u0120Layout": 9363, "*,": 9364, ".');": 9365, "Information": 9366, "baseUrl": 9367, "]_": 9368, "veh": 9369, "\u0120hig": 9370, "250": 9371, "\u00e9\u0122\u012b": 9372, "sWith": 9373, "ulty": 9374, "\u00e8\u00af\u0137": 9375, "Horizontal": 9376, "stra": 9377, "\u0120setLoading": 9378, "take": 9379, "\u00e3\u0124\u00bf": 9380, "\u0120paths": 9381, "\u0120authentication": 9382, "\u00e7\u013d\u00b8": 9383, "Identity": 9384, "\u0120comments": 9385, "\u00e5\u0132\u0133": 9386, "\u0120Software": 9387, "\u0120Tool": 9388, "STRING": 9389, "=@": 9390, "\u00e6\u00b8": 9391, "\u0120ng": 9392, "feedback": 9393, "\u0120256": 9394, "\u0120instanceof": 9395, "\u0120received": 9396, "energy": 9397, ")?": 9398, "FE": 9399, "\u0120typeof": 9400, "\u0120scene": 9401, "\u00e9\u013e\u0122\u00e8\u00a6\u0123": 9402, "\u0120ELSE": 9403, "SPA": 9404, "\u0120Drop": 9405, "\u0120mapping": 9406, "\u0120jest": 9407, "postgresql": 9408, "cursive": 9409, "\u00d0\u013c": 9410, "\u0120])": 9411, "\u0120Mock": 9412, "\u0120uma": 9413, "\u00e5\u0143\u0132": 9414, "\u0120modules": 9415, "Css": 9416, "UAL": 9417, "\u00d0\u013a": 9418, "tended": 9419, "gun": 9420, "\u0120Sort": 9421, "\u0120Graph": 9422, "\u00eb\u00b6": 9423, "\u0120pow": 9424, "\u0120Customer": 9425, "ISO": 9426, "usuario": 9427, "Groups": 9428, "Ip": 9429, "fect": 9430, "\u0120\u010a\u0120\u0120\u0120\u0120\u0120\u0120\u0120\u0120\u0120": 9431, "\u0120navigation": 9432, "typ": 9433, "\u0120imports": 9434, "Packages": 9435, "Tokens": 9436, "<>();": 9437, "\u0120pot": 9438, "stroke": 9439, "\u0120too": 9440, "encies": 9441, "UBLIC": 9442, "\u0120\u010a\u0120\u0120\u0120\u0120": 9443, "adRequest": 9444, "\u0120collect": 9445, "ighbor": 9446, "Slot": 9447, "mr": 9448, "lood": 9449, "\u0120Engine": 9450, "dotnet": 9451, "\u0120reserved": 9452, "Decimal": 9453, "Seconds": 9454, "bench": 9455, "svelte": 9456, "\u00ac\u00b8": 9457, "expression": 9458, "\u0120including": 9459, "ONENT": 9460, "\u0120currency": 9461, "\u0120necessary": 9462, "Ra": 9463, "continue": 9464, "\u0120World": 9465, "\u0120logo": 9466, "\u0120configure": 9467, "Push": 9468, "TT": 9469, "das": 9470, "\u0120Pri": 9471, "\u012063": 9472, "\u0120lambda": 9473, "ically": 9474, "pu": 9475, "aves": 9476, "CONNECT": 9477, "Views": 9478, "\u00e5\u0131\u00a3": 9479, "adr": 9480, "Inject": 9481, "---------": 9482, "\u0120#'": 9483, "WIN": 9484, "vl": 9485, "\u0120flash": 9486, "\u0120returned": 9487, "IDE": 9488, "CB": 9489, "linder": 9490, "Generated": 9491, "\u0120impro": 9492, "outines": 9493, "\u0120READ": 9494, "mos": 9495, "FX": 9496, "Wall": 9497, "\u0120\u00d0\u00b2\u00d1\u012d": 9498, "Cat": 9499, "Raw": 9500, "\u0120dtype": 9501, "plor": 9502, "uck": 9503, "\u0120bound": 9504, "].[": 9505, "Unknown": 9506, "/_": 9507, "\u0120tuple": 9508, "\u0120250": 9509, "\u0120endfor": 9510, "mous": 9511, "buttons": 9512, "DIRE": 9513, ">::": 9514, "Zone": 9515, "\u013f\u012e": 9516, "\u0120flags": 9517, "\u0120Nav": 9518, "\u00d0\u00b8\u00d1\u0124\u00d1\u012e": 9519, ".#": 9520, "\u0120hit": 9521, "Tech": 9522, "urpose": 9523, "\u0120LE": 9524, "\u00c3\u00a1rio": 9525, "'></": 9526, "elif": 9527, "Logo": 9528, "\u0120\u00ec\u013a": 9529, "\u0120styled": 9530, "commands": 9531, "\u00e6\u00b3\u00a8": 9532, "\u0120proc": 9533, "vet": 9534, "\u0120groups": 9535, "]==": 9536, "ij": 9537, "zure": 9538, "ordered": 9539, "\u0120\u00d0\u00bd\u00d0\u00b5": 9540, "\u0120blank": 9541, "ris": 9542, "\u0120Try": 9543, "Features": 9544, "\u0120translateY": 9545, "\u00e9\u00ab\u013a": 9546, "gpu": 9547, "\u00e7\u013e": 9548, "\u0120Stack": 9549, "builtin": 9550, "Vehicle": 9551, "\u0120\u00d1\u012f": 9552, "\u0120Sum": 9553, "marker": 9554, "\u00e3\u0123\u0139\u00e3\u0123\u00a6": 9555, "\u00e7\u00a1\u00ae": 9556, "VENT": 9557, "toast": 9558, "resence": 9559, "manifest": 9560, "commended": 9561, "\u00e8\u00aa": 9562, "\u0120'''": 9563, "\u0120might": 9564, "neutral": 9565, "\u00eb\u0140": 9566, "uml": 9567, "\u0120green": 9568, "owired": 9569, "tele": 9570, "akarta": 9571, "Shared": 9572, "segment": 9573, "\u0120ptr": 9574, "getMessage": 9575, "Dictionary": 9576, "MY": 9577, "}')": 9578, "lam": 9579, "Constants": 9580, "\u0120related": 9581, "buff": 9582, "\u0120started": 9583, "UX": 9584, "\u00e6\u00b2": 9585, "\u0120means": 9586, "Proxy": 9587, "\u0120coordinates": 9588, "\u0120Tech": 9589, "LENGTH": 9590, "\u0120square": 9591, "olved": 9592, "\u0120production": 9593, "=\"#\"": 9594, "\u0120records": 9595, "Autowired": 9596, "\u0120cmp": 9597, "\u0120dictionary": 9598, "functions": 9599, "tsx": 9600, "\u0120management": 9601, "Master": 9602, "ever": 9603, "\u0120Move": 9604, "lemma": 9605, "inx": 9606, "\u0120future": 9607, "\u0120ws": 9608, "\u0120Language": 9609, "Interop": 9610, "\u0120distribution": 9611, "Payload": 9612, "ering": 9613, "\u0120clip": 9614, "\u00d8\u00a7\u00d9\u0128": 9615, "examples": 9616, "orrow": 9617, "fade": 9618, "mf": 9619, "Processor": 9620, "AspNet": 9621, "[=": 9622, "\u0120getAll": 9623, "Photo": 9624, "\u0120180": 9625, "Bot": 9626, "Face": 9627, "\u00d0\u00b8\u00d1\u0124\u00d0\u00b5": 9628, "onymous": 9629, "&&": 9630, "oi": 9631, "\u00e5\u00ae\u012e": 9632, "market": 9633, "Preview": 9634, "Design": 9635, "hat": 9636, "nate": 9637, "ERT": 9638, "START": 9639, "\u0120Real": 9640, "\u0120COUNT": 9641, "Phase": 9642, "\u0120@(": 9643, "GROUP": 9644, "\u0120maint": 9645, "dating": 9646, "\u0120lab": 9647, "\u0120FUNCTION": 9648, "\u0120?,": 9649, "Opacity": 9650, "EEE": 9651, "ceptions": 9652, "ccion": 9653, "\u00ec\u012c\u00b5": 9654, "tcp": 9655, "utdown": 9656, "Buf": 9657, "\u0120Parameters": 9658, "White": 9659, "\u00e6\u013e\u0141": 9660, "[=].": 9661, "Ticket": 9662, "Replace": 9663, "forma": 9664, "Suffix": 9665, "\u0120AWS": 9666, "\u0120RO": 9667, "\u0120good": 9668, "ArgsConstructor": 9669, "Pixel": 9670, "sizing": 9671, "imo": 9672, "\u0120intro": 9673, "\u00d0\u00be\u00d1\u0123": 9674, "\u0120changed": 9675, "Runner": 9676, "ircuit": 9677, "Wave": 9678, "sal": 9679, "untu": 9680, "poetry": 9681, "\u0120editor": 9682, ">\\": 9683, "Batch": 9684, "\u0120bash": 9685, "toHave": 9686, "\u0120sed": 9687, "elements": 9688, "hyper": 9689, "\u0120sell": 9690, "\u0120assets": 9691, "\u00e9\u00aa": 9692, "\u0120due": 9693, "ancell": 9694, "\"][\"": 9695, "LICENSE": 9696, "hit": 9697, "\u0120cut": 9698, "Indic": 9699, "ORS": 9700, "High": 9701, "EXPOSE": 9702, "TX": 9703, "cov": 9704, "\u0120From": 9705, "\u012039": 9706, "overflow": 9707, "\u00e8\u012c": 9708, "threshold": 9709, "findById": 9710, "oy": 9711, "\u0120Po": 9712, "booking": 9713, "\u00e8\u00bf\u0136\u00e5\u013d\u0140": 9714, "Big": 9715, "dll": 9716, "\u0120setTimeout": 9717, "\u0120Property": 9718, "states": 9719, "OD": 9720, "\u012042": 9721, "allocator": 9722, "HAL": 9723, "\u0120GitHub": 9724, "\u0120Vert": 9725, "\u0120csv": 9726, "\u0120$\\": 9727, "ggreg": 9728, "Equ": 9729, "indices": 9730, "pict": 9731, "Holder": 9732, "mal": 9733, "jobs": 9734, "[])": 9735, "mutex": 9736, "\u00e5\u00ba\u0135": 9737, "\u00e5\u00b8\u00b8": 9738, ":#": 9739, "spro": 9740, "\u01202022": 9741, "Qt": 9742, "Force": 9743, "ilent": 9744, "appro": 9745, "================================================": 9746, "tion": 9747, "ticket": 9748, "izable": 9749, "Children": 9750, "Google": 9751, "Cert": 9752, "\u0120sus": 9753, "ulk": 9754, "ribution": 9755, "512": 9756, "appendChild": 9757, "ARRANT": 9758, "lake": 9759, "\u0120avoid": 9760, "InlineData": 9761, "stit": 9762, "\u0120SP": 9763, "\u0120proper": 9764, "compare": 9765, "\u0120\u00ec\u00b6": 9766, "\u0120Extract": 9767, "versions": 9768, "cargo": 9769, "\u0120priority": 9770, "\u0120WHEN": 9771, "pip": 9772, "\u0120dan": 9773, "irror": 9774, "__\":": 9775, "Extension": 9776, "\u00e5\u0142": 9777, "iste": 9778, "\u0120FALSE": 9779, "\u0120Repository": 9780, "varchar": 9781, "\u0120Resource": 9782, "destination": 9783, "iversity": 9784, "\u0120uppercase": 9785, "\u0120bel": 9786, "\u0120Tab": 9787, "\u0120Theme": 9788, "Alpha": 9789, "\u0120partial": 9790, "Cloud": 9791, "\u0120ic": 9792, "edin": 9793, "beans": 9794, "\u0120rights": 9795, "servlet": 9796, "\u0120yy": 9797, "\u0120Grid": 9798, "\u012065": 9799, "\u0120transfer": 9800, "\u0120--------------------------------": 9801, "Sequence": 9802, "Resources": 9803, "Src": 9804, "orph": 9805, "()));": 9806, "\u00d0\u00be\u00d1\u0123\u00d1\u0124": 9807, "generated": 9808, "sorted": 9809, "Solution": 9810, "most": 9811, "lability": 9812, "Assembly": 9813, "\u0120today": 9814, "\u0120segment": 9815, "\u0120\u00ec\u0142\u0137": 9816, "ysics": 9817, "\u00e1\u00ba\u00bf": 9818, "Ratio": 9819, "\u0120Clear": 9820, "\u0120DATE": 9821, "\u010a\u0120\u0120\u0120\u0120\u0120\u0120\u0120\u0120\u0120\u0120\u0120\u0120\u0120\u0120\u0120\u0120\u0120\u0120\u0120\u0120\u010a\u0120\u0120\u0120\u0120\u0120\u0120\u0120\u0120\u0120\u0120\u0120\u0120\u0120\u0120\u0120\u0120\u0120\u0120\u0120": 9822, "\u0120rotation": 9823, "\u0120Ge": 9824, "??": 9825, "\u0120PATH": 9826, "bernate": 9827, "\u0120similar": 9828, "\u012e\u0122": 9829, "\u0120il": 9830, "\u0120WARRANT": 9831, "\u0120directly": 9832, "\u00d0\u00b0\u00d0\u00bd\u00d0\u00bd\u00d1\u012d": 9833, "Players": 9834, "\u00eb\u0142\u00a5": 9835, "\u00bd\u00e6\u0137\u00b0": 9836, "\u0120classes": 9837, "lore": 9838, "named": 9839, "MODULE": 9840, "Site": 9841, "\u0120CY": 9842, "\u0120atom": 9843, "\u0120Script": 9844, "\u0120]];": 9845, "\u00e8\u00bd\u00ac": 9846, "\u0120whether": 9847, "\u0120WA": 9848, "\u0120keyword": 9849, "\u0120updates": 9850, "\u010d\u010a\u0120\u0120\u010d\u010a\u0120": 9851, "\u00e6\u0138\u00b9\u00e6\u00b3\u0137": 9852, "\u0120Thread": 9853, "\u0120Toast": 9854, "\u0120fillcolor": 9855, "\u00e4\u00be\u012d": 9856, "Cla": 9857, "\u0120Num": 9858, "STIN": 9859, "CN": 9860, "Guid": 9861, "\u0120Fast": 9862, "constant": 9863, "Ag": 9864, "\u00ec\u013a": 9865, "\u00f0\u0141\u0135": 9866, "Failure": 9867, "silent": 9868, "unnel": 9869, "Times": 9870, "\u0120Parse": 9871, "\u00c3\u00b4ng": 9872, "ila": 9873, "orary": 9874, "\u0120cop": 9875, "\u012075": 9876, "\u0120entries": 9877, ";}": 9878, "ault": 9879, "mc": 9880, "ampling": 9881, "\u00c3\u00a9s": 9882, "filtered": 9883, "BA": 9884, "nom": 9885, "\u00e4\u00bd\u012f": 9886, "ea": 9887, "atory": 9888, "\u00d1\u0122\u00d0\u00b8": 9889, "40101": 9890, "BD": 9891, "\u00e5\u0137": 9892, "\u0120TYPE": 9893, "Compile": 9894, "Bound": 9895, "even": 9896, "\u0120ips": 9897, "isLoading": 9898, "\u0120viewModel": 9899, "blems": 9900, "Abstract": 9901, "\u0120Apache": 9902, ",.": 9903, "\u00d8\u00a7\u00d8\u00aa": 9904, "aje": 9905, "\u0120cloud": 9906, "\u0120schedule": 9907, "\u0120\u00eb\u00aa": 9908, "\u00e4\u00bb\u00ac": 9909, "runner": 9910, "\u0120pandas": 9911, "ByType": 9912, "\u0120execution": 9913, "\u0120Format": 9914, "\u0120supabase": 9915, "ively": 9916, "Training": 9917, "Categories": 9918, "paper": 9919, "noise": 9920, "playerid": 9921, "---------------": 9922, "Days": 9923, "nat": 9924, "prog": 9925, "frontend": 9926, "SR": 9927, "\u00e8\u00b6": 9928, "\u0120adjust": 9929, "\u0120Contract": 9930, "Refresh": 9931, "Switch": 9932, "\u00e6\u00ac\u00a1": 9933, "]])": 9934, "2019": 9935, "subtitle": 9936, "\u0120TextStyle": 9937, "{},": 9938, "\u00b7\u00b8": 9939, "\u0120Close": 9940, "production": 9941, "unknown": 9942, "\u0120provides": 9943, "\u0120goto": 9944, "\u0120cols": 9945, "Columns": 9946, "flush": 9947, "ially": 9948, "\u00e8\u012b\u00b2": 9949, "tos": 9950, "\u0120Invalid": 9951, "Android": 9952, "ival": 9953, "\u0120supported": 9954, "\u0120Team": 9955, "cycler": 9956, "Navigation": 9957, "('');": 9958, "INIT": 9959, "\u0120algorithm": 9960, "bank": 9961, "\u0120Adjust": 9962, "\u0120HE": 9963, "Exercise": 9964, "\u0120INSERT": 9965, "Iterator": 9966, "how": 9967, "\u0120sem": 9968, "sho": 9969, "\u0120outputs": 9970, "\u0120Comment": 9971, "rotate": 9972, "\u0120Pass": 9973, "MEM": 9974, "\u0120positive": 9975, "\u0120Require": 9976, "SUCCESS": 9977, "km": 9978, "\u0120[])": 9979, "sky": 9980, "literal": 9981, "rpc": 9982, "\u00a3\u00bc": 9983, "ono": 9984, "\u0120IOST": 9985, "ysical": 9986, "Patient": 9987, "rofit": 9988, "\u0120Size": 9989, "\u0120Win": 9990, "\u0120loaded": 9991, "\u0120backup": 9992, "Collect": 9993, "plant": 9994, "DOM": 9995, "Med": 9996, "Ingre": 9997, "toFixed": 9998, "ERS": 9999, "Seq": 10000, "\u0120Validate": 10001, "\u0120IOSTANDARD": 10002, "WD": 10003, "Yes": 10004, "\u0120La": 10005, "dictions": 10006, "extensions": 10007, "izers": 10008, "DIS": 10009, "Usuario": 10010, "CPU": 10011, "\u00ec\u013e\u00bc\u00eb\u00a1\u013e": 10012, "\u012029": 10013, "xi": 10014, "googleapis": 10015, "\u00e2\u0124\u0123": 10016, "-(": 10017, "lon": 10018, "\u0120Clean": 10019, "gene": 10020, "\u00e8\u00ae\u00a4": 10021, ":${": 10022, "Bind": 10023, "Other": 10024, "urations": 10025, "mass": 10026, "endance": 10027, "SESSION": 10028, "starter": 10029, "\u0120Controller": 10030, "management": 10031, "\u0120visit": 10032, "Enemy": 10033, "gov": 10034, "\u0120fold": 10035, "\u0120Normal": 10036, "Touch": 10037, "\u0120visited": 10038, "Bin": 10039, "banner": 10040, "\u0120{$": 10041, "\u0120}));": 10042, "iving": 10043, "\u00e9\u00bb": 10044, "raform": 10045, "\u00e0\u00b8\u00b2": 10046, "Hook": 10047, "pine": 10048, "\u0120Enter": 10049, "tooltip": 10050, "\u00ec\u0128": 10051, "\u0120Replace": 10052, "tailwind": 10053, "/%": 10054, "bx": 10055, "ko": 10056, "\u0120norm": 10057, "ourses": 10058, "pie": 10059, "Validator": 10060, "reply": 10061, "evalu": 10062, "osable": 10063, "Posts": 10064, "\u0120scripts": 10065, "licenses": 10066, "\u00d8\u00ae": 10067, "\u0120')": 10068, "apps": 10069, "ban": 10070, "middleware": 10071, "\u0120pull": 10072, "\u0120UNIQUE": 10073, "[^": 10074, "abet": 10075, "toml": 10076, "chr": 10077, "peak": 10078, "\">&": 10079, "nology": 10080, "Pointer": 10081, "Upper": 10082, "\u0120OP": 10083, "\u0120resolve": 10084, "lined": 10085, "\u0120clone": 10086, "\u0120allows": 10087, "\u0120curl": 10088, "\u0120SER": 10089, "rier": 10090, "\u0120XCT": 10091, "capt": 10092, "UseCase": 10093, "Bits": 10094, "gateway": 10095, "priv": 10096, "\u0120\u00d0\u0140": 10097, "\u0120Role": 10098, "\u00e5\u00a4\u0126\u00e7\u0132\u0128": 10099, "TF": 10100, "puts": 10101, "\u0120Fetch": 10102, "STEM": 10103, "\u0120edges": 10104, "}',": 10105, "\u010d\u010a\u0120\u0120\u0120\u0120\u0120\u0120": 10106, "\u0120creation": 10107, "\u0120remote": 10108, ")?;": 10109, "Migration": 10110, "Present": 10111, "Arrow": 10112, "\u00e7\u00a9\u00ba": 10113, "\u0120[`": 10114, "\u00e2\u0136\u0123": 10115, "\u00e4\u00b9\u012b": 10116, "squ": 10117, "\u00d8\u00a7\u00d8\u00b1": 10118, "\u00e6\u0139\u00b6\u00e9\u0139\u00b4": 10119, "\u0120cs": 10120, "\u0120requires": 10121, "\u0120Just": 10122, "\u0120tele": 10123, "TargetFramework": 10124, "Ty": 10125, "efficient": 10126, "metry": 10127, "Country": 10128, "\u00e5\u00ba\u0131": 10129, "coped": 10130, "NEL": 10131, "\u010a\u0120\u0120\u0120\u0120\u0120\u0120\u0120\u0120\u0120\u0120\u0120\u0120\u0120\u0120\u0120\u0120\u0120\u0120\u0120\u0120\u0120\u0120\u0120\u0120\u0120\u0120\u0120\u0120\u0120\u0120": 10132, "GroupLayout": 10133, "Records": 10134, "Hy": 10135, "******": 10136, "\u0120pygame": 10137, "=\"#\">": 10138, "IA": 10139, "gender": 10140, "\u012f\u00e4\u00bd\u013e": 10141, "roles": 10142, "\u0120aux": 10143, "SU": 10144, "accent": 10145, "={'": 10146, "\u0120ti": 10147, "idos": 10148, "intro": 10149, "\u0120Cal": 10150, "\u0120&.": 10151, "\u01203000": 10152, "Blog": 10153, "LOAD": 10154, "weatherforecast": 10155, "wr": 10156, "\u0120###": 10157, "mente": 10158, "\u0120>>>": 10159, "\u0120LOG": 10160, "Dark": 10161, "Nombre": 10162, "sup": 10163, "\u00e5\u012d": 10164, "igen": 10165, "good": 10166, "\u0120predict": 10167, "\u0120\u00eb\u012d": 10168, "levant": 10169, "\u0120RETURN": 10170, "\u0120DATA": 10171, "tau": 10172, "\u0120htmlFor": 10173, "Drawing": 10174, "\u0120Ra": 10175, "cedure": 10176, "\u0120=================================================================": 10177, "\u0120123": 10178, "Inv": 10179, "Tools": 10180, "visual": 10181, "-${": 10182, "Chunk": 10183, "\u0120examples": 10184, "Analysis": 10185, "\u010a\u010a\u0120\u0120\u0120\u0120": 10186, "Dependencies": 10187, "\u010a\u0109\u0109\u0109\u010a\u0109\u0109": 10188, "$.": 10189, "=.": 10190, "?\"": 10191, "pat": 10192, "MAND": 10193, "specific": 10194, "\u00e7\u00ae\u00a1\u00e7\u0132\u0128": 10195, "mini": 10196, "\u0120expand": 10197, "compute": 10198, "variables": 10199, "DATABASE": 10200, "aybe": 10201, "\u00e3\u0125\u0139": 10202, "lenium": 10203, "FORM": 10204, "\u0120Management": 10205, "\u00e7\u00bc\u0138": 10206, "\u00d0\u00b0\u00d1\u0123": 10207, "reload": 10208, "mega": 10209, "\u0120remaining": 10210, "Methods": 10211, "SDK": 10212, "ancellation": 10213, "middle": 10214, "sx": 10215, "\u0120redis": 10216, "\u0120cycle": 10217, "outputs": 10218, "Transfer": 10219, "\u012099": 10220, "\u0120fire": 10221, ")>]": 10222, "qs": 10223, "uro": 10224, "\u00e9\u0134": 10225, "\u0120{...": 10226, "underline": 10227, "ANGU": 10228, "Actor": 10229, "ais": 10230, "\u0120#(": 10231, "\u0120Draw": 10232, "\u012055": 10233, "\u00d0\u00b8\u00d0\u00bd": 10234, "Elements": 10235, "merce": 10236, "lify": 10237, "\u0120conditions": 10238, "CALL": 10239, "Mount": 10240, "\u0120pdf": 10241, "\u0120DESC": 10242, "assoc": 10243, "Region": 10244, "Lin": 10245, "\u0120bra": 10246, "\u0120students": 10247, "SPE": 10248, "\u0120pg": 10249, "\u00e3\u0123\u0135": 10250, "NODE": 10251, "\u0120\"-\"": 10252, "Multi": 10253, "Signal": 10254, "GRE": 10255, "\u0120dolor": 10256, "\u0120journal": 10257, "\u0120plugins": 10258, "Guard": 10259, "\u012f\u00b0": 10260, "CharField": 10261, "\u0120\u00d0\u00b8\u00d0\u00b7": 10262, "\u00e6\u0136\u00b9": 10263, "routine": 10264, "eep": 10265, "\u0120Rel": 10266, "completion": 10267, "\u00e5\u012e\u0127": 10268, "CFLAGS": 10269, "\u0120nix": 10270, "\u0120hsl": 10271, ")){": 10272, "\u0120implicit": 10273, "\u0120ssl": 10274, "\u00e7\u00ac\u00ac": 10275, "\u0120EdgeInsets": 10276, "\u0120\u00ec\u0124\u00ac\u00ec\u013c\u00a9": 10277, "\u0120AD": 10278, "\u00e6\u013a\u0130": 10279, "\u0120terminal": 10280, "\u0120dos": 10281, "Instrument": 10282, "\u00d0\u00be\u00d0\u00bf": 10283, "Shift": 10284, "\u00d0\u00b0\u00d0\u00b4": 10285, "VCMOS": 10286, "fic": 10287, "sif": 10288, "\u0120questions": 10289, "\u00ec\u0142\u013e": 10290, "1234567": 10291, "bad": 10292, "uz": 10293, "\u00d8\u00b4": 10294, "\u0120license": 10295, "\u0120wrong": 10296, "\u00e5\u00b0\u0128": 10297, ">`": 10298, "Black": 10299, "\u0120cent": 10300, "\u0120rewrite": 10301, "olar": 10302, "Conn": 10303, "\u00e3\u0124\u012c": 10304, "which": 10305, "pipe": 10306, "Append": 10307, "Follow": 10308, "always": 10309, "ingredient": 10310, "atalon": 10311, "Setting": 10312, "\u0120cb": 10313, "\u0120(@": 10314, "\u012033": 10315, "fox": 10316, "COORD": 10317, "\u00e5\u0127\u0125": 10318, "enticate": 10319, "MON": 10320, "Prop": 10321, "\u00e9\u0137\u00bf": 10322, "nical": 10323, "lah": 10324, "\u0120machine": 10325, "permission": 10326, "Notes": 10327, "PLACE": 10328, "\u0120still": 10329, "Editing": 10330, "\u00e2\u0122\u00a2": 10331, "UV": 10332, "\u013f\u00bc": 10333, "once": 10334, "Buttons": 10335, "(?": 10336, "mv": 10337, "\u0120ls": 10338, "plane": 10339, "\u0120organization": 10340, "FACE": 10341, "\u0120\u00d8\u00aa": 10342, "--------------": 10343, "GU": 10344, "friend": 10345, "indic": 10346, "Variant": 10347, "Destroy": 10348, "NONE": 10349, "uer": 10350, "\u010a\u010a\u0120\u0120\u0120\u0120\u0120\u0120\u0120\u0120\u0120\u0120\u0120\u0120\u0120": 10351, "aders": 10352, "\u0120%.": 10353, "\u0120One": 10354, "\u00d1\u0124\u00d0\u00be": 10355, "ViewById": 10356, "FAIL": 10357, "\u0120three": 10358, "\u0120correspon": 10359, "\u0120pairs": 10360, ".\";": 10361, "ira": 10362, "\u0120\u00e2\u0138": 10363, "\u0120Alert": 10364, "\u00e8\u00b7\u00af": 10365, "\u00e5\u00a2\u0140": 10366, ">}": 10367, "Branch": 10368, "Dao": 10369, "\u0120det": 10370, "\u0120como": 10371, "joint": 10372, "\u0120measure": 10373, "\u0120annotation": 10374, "\u0120Allow": 10375, "lications": 10376, "\u0120\u00ec\u013e": 10377, "django": 10378, "\u00e2\u0128": 10379, "\u00e6\u00b6\u012a": 10380, "0001": 10381, "FILENAME": 10382, "updatedAt": 10383, "Html": 10384, "adv": 10385, "\u0120posts": 10386, "anspose": 10387, "Wallet": 10388, "\u0120connected": 10389, "LIBR": 10390, "Dynamic": 10391, "Machine": 10392, "ara": 10393, "\u0120:+": 10394, "\u0120yet": 10395, "\u010a\u0120\u0120\u010a\u0120\u0120\u0120": 10396, "contents": 10397, "\u0120Exit": 10398, "signup": 10399, "OFF": 10400, "jsp": 10401, "edido": 10402, "(\"./": 10403, "\u0120noise": 10404, "anks": 10405, "dispatch": 10406, "getId": 10407, "ANGE": 10408, "Formatter": 10409, "\u0120Only": 10410, "\u00e2\u0136\u0123\u00e2\u0136\u0123": 10411, "dep": 10412, "devel": 10413, "002": 10414, "substring": 10415, "BS": 10416, "gate": 10417, "katalon": 10418, "\u0120press": 10419, "\u0120CRE": 10420, "\u0120TIM": 10421, "tempts": 10422, "Mac": 10423, "deep": 10424, "\u0120quote": 10425, "tabs": 10426, "README": 10427, "Paths": 10428, "\u0125\u00e2\u0123": 10429, "controls": 10430, "\u0120Security": 10431, "QUIRED": 10432, "130": 10433, "heap": 10434, "className": 10435, "mitive": 10436, "\u0120\u010a\u0120\u0120\u0120\u0120\u0120\u0120\u0120\u0120\u0120\u0120\u0120\u0120\u0120\u0120\u0120\u0120\u0120\u0120\u0120": 10437, "utos": 10438, "istent": 10439, "\u0120abstract": 10440, "Facade": 10441, "\u0120ut": 10442, "\u0120horizontal": 10443, "\u00e4\u00b8\u013c": 10444, "grpc": 10445, "\u0120instruction": 10446, "\u0120Apply": 10447, "\u00e6\u012f\u00a2": 10448, "pearance": 10449, "Focus": 10450, "slate": 10451, "ylabel": 10452, "\u0120dashboard": 10453, "Convert": 10454, "\u0120matching": 10455, "repos": 10456, "\u0120mu": 10457, "getName": 10458, "series": 10459, "leting": 10460, "\u0120members": 10461, "\u00e8\u00bd\u00bd": 10462, "]\">": 10463, "setItem": 10464, "(*)": 10465, "claration": 10466, "stdlib": 10467, "others": 10468, "OC": 10469, "\u00e0\u00b7": 10470, "constants": 10471, "dash": 10472, "icate": 10473, "\u0120ou": 10474, "Inte": 10475, "\u0120Last": 10476, "}}\"": 10477, "Execute": 10478, "MQ": 10479, "Period": 10480, "rgba": 10481, "Nc": 10482, "\u00e6\u00b4": 10483, "ald": 10484, "\u0120Meta": 10485, "\u00eb\u00a9\u00b4": 10486, "BB": 10487, "Picker": 10488, "leaf": 10489, "\u0120Firebase": 10490, "\u0120Op": 10491, "Setup": 10492, "\u00e5\u00b7\u00b2": 10493, "ght": 10494, "\u0120}}\">": 10495, "ury": 10496, "('\\": 10497, "Keyboard": 10498, "Orders": 10499, "\u00e1\u00ba\u0143": 10500, "ulator": 10501, "\u0120grad": 10502, "BUFFER": 10503, "\u0120Level": 10504, "\u0120difference": 10505, "Mesh": 10506, "\u0120sqrt": 10507, "rv": 10508, "ctrl": 10509, "iry": 10510, "\u0120compare": 10511, "AAAAAAAA": 10512, "VATE": 10513, "bill": 10514, "goto": 10515, "lazy": 10516, "\u0120Play": 10517, "\u0120Mod": 10518, "refs": 10519, "Where": 10520, "rupt": 10521, "sales": 10522, "aria": 10523, "\u0120unknown": 10524, "Week": 10525, "gallery": 10526, "ROW": 10527, "penses": 10528, "\u00e8\u00a1\u00a8\u00e7\u00a4\u00ba": 10529, "\u0120Visual": 10530, "Qual": 10531, "\u0120sampler": 10532, "Coordinate": 10533, "ArrayList": 10534, "\u00e8\u00b0\u0125": 10535, "idity": 10536, "\u00d0\u00be\u00d0\u00bb\u00d1\u012e\u00d0\u00b7": 10537, "\\\",": 10538, "fw": 10539, "kn": 10540, "inct": 10541, "\u0120cli": 10542, "\u0120coin": 10543, "Analyzer": 10544, "stdout": 10545, "\u0120Transaction": 10546, "\u00ed\u0125": 10547, "visibility": 10548, "havi": 10549, "delivr": 10550, "\u0120Site": 10551, "(\"@": 10552, "Currency": 10553, "Nil": 10554, "\u0120Iter": 10555, "\u0120processed": 10556, "\u0120maven": 10557, "listen": 10558, "\u0120Scanner": 10559, "\u00e9\u00a1\u00b5": 10560, "standard": 10561, "Encoding": 10562, "Native": 10563, "Round": 10564, "scribed": 10565, "jsdelivr": 10566, "alculator": 10567, "\u00e5\u0129\u00bd\u00e6\u0137\u00b0": 10568, "\u0120\u00e2\u0122\u0135": 10569, "FORMAT": 10570, "\u0120sets": 10571, "\u0120boot": 10572, "aciones": 10573, "\u0120Partial": 10574, "resume": 10575, "\u0120Parser": 10576, "nx": 10577, "magen": 10578, "serde": 10579, "\u00ea\u00b3\u00bc": 10580, "!\\": 10581, "Credentials": 10582, "organ": 10583, "catalog": 10584, "(<": 10585, ")}\")": 10586, "encoding": 10587, "olang": 10588, "\u0120bas": 10589, "grep": 10590, "TargetPath": 10591, "Super": 10592, "gui": 10593, "\u0120pipeline": 10594, "\u00d1\u0125\u00d1\u0129": 10595, "\u00e5\u00b8\u0124": 10596, "\u0120COLUMN": 10597, "curl": 10598, "\u00e8\u00be\u0135\u00e5\u0127\u00a5": 10599, "\u0125\u00e2\u0123\u0125\u00e2\u0123": 10600, "asc": 10601, "\u0120LVCMOS": 10602, "INCLUDE": 10603, "\u0120made": 10604, "\u00e5\u012a\u013b": 10605, "rado": 10606, "uffle": 10607, "\u00e2\u0124\u0124": 10608, "Pending": 10609, "\u0120Other": 10610, "temperature": 10611, "\u0120Device": 10612, "Renderer": 10613, "eth": 10614, "istant": 10615, "quant": 10616, "\u0120Report": 10617, "\u0120union": 10618, "\u0120lists": 10619, "\u0120automatically": 10620, ")|": 10621, "Front": 10622, "ssential": 10623, "\u0120Core": 10624, "park": 10625, "\u0120Job": 10626, "\u0120market": 10627, "Tick": 10628, "\u00d0\u00a2": 10629, "\u00d0\u0142": 10630, "roker": 10631, "\u0120HAL": 10632, "coroutines": 10633, "helm": 10634, "\u0120removed": 10635, "'},": 10636, "DM": 10637, "utation": 10638, "keleton": 10639, "\u0120buttons": 10640, "ongoDB": 10641, "\u0120Buffer": 10642, "RX": 10643, "VAR": 10644, "Schedule": 10645, "\u00e4\u00bb\u00bb": 10646, "documents": 10647, "hibernate": 10648, "\u010d\u010a\u010d\u010a\u0120\u0120\u0120\u0120\u0120\u0120\u0120\u0120\u0120\u0120\u0120\u0120\u0120\u0120\u0120": 10649, "transfer": 10650, "\u0120safe": 10651, "\u00e5\u0131\u0124\u00e6\u0137\u00b0": 10652, "tu": 10653, "\u00e6\u00ba": 10654, "\u0120tf": 10655, "keep": 10656, "160": 10657, "\u0120zone": 10658, "Threshold": 10659, "*-": 10660, "AV": 10661, "xlabel": 10662, "\u0120}.": 10663, "changed": 10664, "\u0120issues": 10665, "!</": 10666, "Export": 10667, "\u0120800": 10668, "spawn": 10669, "Expected": 10670, "\u01202000": 10671, "appcompat": 10672, "freq": 10673, "--;": 10674, "\u0120inset": 10675, "\u0120Av": 10676, "\u0120Branch": 10677, "330": 10678, "CardContent": 10679, "Been": 10680, "\u00e1\u00bb\u0129": 10681, "attle": 10682, "?\",": 10683, "inventory": 10684, "\u0120Rewrite": 10685, "apple": 10686, "choose": 10687, "\u00e6\u0136\u00af": 10688, "osen": 10689, "\u0120gradient": 10690, "Changes": 10691, "missing": 10692, "\u0120{.": 10693, "\u0120pan": 10694, "\u0120Sm": 10695, "\u0120Browser": 10696, "\u0120\u00eb\u00a7": 10697, "IfModule": 10698, "\u0120\u00ea\u00b0\u0122": 10699, "Ve": 10700, "\u0120accur": 10701, "RootNamespace": 10702, "receiver": 10703, "jump": 10704,
[...]
